{
  "version": "1.0",
  "truncation": null,
  "padding": null,
  "added_tokens": [
    {
      "id": 0,
      "content": "<pad>",
      "single_word": false,
      "lstrip": false,
      "rstrip": false,
      "normalized": false,
      "special": true
    },
    {
      "id": 1,
      "content": "<start_of_text>",
      "single_word": false,
      "lstrip": false,
      "rstrip": false,
      "normalized": false,
      "special": true
    },
    {
      "id": 2,
      "content": "<end_of_text>",
      "single_word": false,
      "lstrip": false,
      "rstrip": false,
      "normalized": false,
      "special": true
    },
    {
      "id": 3,
      "content": "<|person|>",
      "single_word": false,
      "lstrip": false,
      "rstrip": false,
      "normalized": false,
      "special": true
    },
    {
      "id": 4,
      "content": "<|mrn|>",
      "single_word": false,
      "lstrip": false,
      "rstrip": false,
      "normalized": false,
      "special": true
    },
    {
      "id": 5,
      "content": "<|specimen_id|>",
      "single_word": false,
      "lstrip": false,
      "rstrip": false,
      "normalized": false,
      "special": true
    },
    {
      "id": 6,
      "content": "<|date|>",
      "single_word": false,
      "lstrip": false,
      "rstrip": false,
      "normalized": false,
      "special": true
    }
  ],
  "normalizer": {
    "type": "Sequence",
    "normalizers": [
      {
        "type": "NFD"
      },
      {
        "type": "StripAccents"
      },
      {
        "type": "Lowercase"
      }
    ]
  },
  "pre_tokenizer": {
    "type": "ByteLevel",
    "add_prefix_space": true,
    "trim_offsets": true,
    "use_regex": true
  },
  "post_processor": {
    "type": "TemplateProcessing",
    "single": [
      {
        "SpecialToken": {
          "id": "<start_of_text>",
          "type_id": 0
        }
      },
      {
        "Sequence": {
          "id": "A",
          "type_id": 0
        }
      },
      {
        "SpecialToken": {
          "id": "<end_of_text>",
          "type_id": 0
        }
      }
    ],
    "pair": [
      {
        "Sequence": {
          "id": "A",
          "type_id": 0
        }
      },
      {
        "Sequence": {
          "id": "B",
          "type_id": 1
        }
      }
    ],
    "special_tokens": {
      "<end_of_text>": {
        "id": "<end_of_text>",
        "ids": [
          2
        ],
        "tokens": [
          "<end_of_text>"
        ]
      },
      "<start_of_text>": {
        "id": "<start_of_text>",
        "ids": [
          1
        ],
        "tokens": [
          "<start_of_text>"
        ]
      }
    }
  },
  "decoder": {
    "type": "ByteLevel",
    "add_prefix_space": true,
    "trim_offsets": true,
    "use_regex": true
  },
  "model": {
    "type": "BPE",
    "dropout": null,
    "unk_token": null,
    "continuing_subword_prefix": null,
    "end_of_word_suffix": null,
    "fuse_unk": false,
    "vocab": {
      "<pad>": 0,
      "<start_of_text>": 1,
      "<end_of_text>": 2,
      "<|person|>": 3,
      "<|mrn|>": 4,
      "<|specimen_id|>": 5,
      "<|date|>": 6,
      "!": 7,
      "\"": 8,
      "#": 9,
      "$": 10,
      "%": 11,
      "&": 12,
      "'": 13,
      "(": 14,
      ")": 15,
      "*": 16,
      "+": 17,
      ",": 18,
      "-": 19,
      ".": 20,
      "/": 21,
      "0": 22,
      "1": 23,
      "2": 24,
      "3": 25,
      "4": 26,
      "5": 27,
      "6": 28,
      "7": 29,
      "8": 30,
      "9": 31,
      ":": 32,
      ";": 33,
      "<": 34,
      "=": 35,
      ">": 36,
      "?": 37,
      "@": 38,
      "A": 39,
      "B": 40,
      "C": 41,
      "D": 42,
      "E": 43,
      "F": 44,
      "G": 45,
      "H": 46,
      "I": 47,
      "J": 48,
      "K": 49,
      "L": 50,
      "M": 51,
      "N": 52,
      "O": 53,
      "P": 54,
      "Q": 55,
      "R": 56,
      "S": 57,
      "T": 58,
      "U": 59,
      "V": 60,
      "W": 61,
      "X": 62,
      "Y": 63,
      "Z": 64,
      "[": 65,
      "\\": 66,
      "]": 67,
      "^": 68,
      "_": 69,
      "`": 70,
      "a": 71,
      "b": 72,
      "c": 73,
      "d": 74,
      "e": 75,
      "f": 76,
      "g": 77,
      "h": 78,
      "i": 79,
      "j": 80,
      "k": 81,
      "l": 82,
      "m": 83,
      "n": 84,
      "o": 85,
      "p": 86,
      "q": 87,
      "r": 88,
      "s": 89,
      "t": 90,
      "u": 91,
      "v": 92,
      "w": 93,
      "x": 94,
      "y": 95,
      "z": 96,
      "{": 97,
      "|": 98,
      "}": 99,
      "~": 100,
      "¡": 101,
      "¢": 102,
      "£": 103,
      "¤": 104,
      "¥": 105,
      "¦": 106,
      "§": 107,
      "¨": 108,
      "©": 109,
      "ª": 110,
      "«": 111,
      "¬": 112,
      "®": 113,
      "¯": 114,
      "°": 115,
      "±": 116,
      "²": 117,
      "³": 118,
      "´": 119,
      "µ": 120,
      "¶": 121,
      "·": 122,
      "¸": 123,
      "¹": 124,
      "º": 125,
      "»": 126,
      "¼": 127,
      "½": 128,
      "¾": 129,
      "¿": 130,
      "À": 131,
      "Á": 132,
      "Â": 133,
      "Ã": 134,
      "Ä": 135,
      "Å": 136,
      "Æ": 137,
      "Ç": 138,
      "È": 139,
      "É": 140,
      "Ê": 141,
      "Ë": 142,
      "Ì": 143,
      "Í": 144,
      "Î": 145,
      "Ï": 146,
      "Ð": 147,
      "Ñ": 148,
      "Ò": 149,
      "Ó": 150,
      "Ô": 151,
      "Õ": 152,
      "Ö": 153,
      "×": 154,
      "Ø": 155,
      "Ù": 156,
      "Ú": 157,
      "Û": 158,
      "Ü": 159,
      "Ý": 160,
      "Þ": 161,
      "ß": 162,
      "à": 163,
      "á": 164,
      "â": 165,
      "ã": 166,
      "ä": 167,
      "å": 168,
      "æ": 169,
      "ç": 170,
      "è": 171,
      "é": 172,
      "ê": 173,
      "ë": 174,
      "ì": 175,
      "í": 176,
      "î": 177,
      "ï": 178,
      "ð": 179,
      "ñ": 180,
      "ò": 181,
      "ó": 182,
      "ô": 183,
      "õ": 184,
      "ö": 185,
      "÷": 186,
      "ø": 187,
      "ù": 188,
      "ú": 189,
      "û": 190,
      "ü": 191,
      "ý": 192,
      "þ": 193,
      "ÿ": 194,
      "Ā": 195,
      "ā": 196,
      "Ă": 197,
      "ă": 198,
      "Ą": 199,
      "ą": 200,
      "Ć": 201,
      "ć": 202,
      "Ĉ": 203,
      "ĉ": 204,
      "Ċ": 205,
      "ċ": 206,
      "Č": 207,
      "č": 208,
      "Ď": 209,
      "ď": 210,
      "Đ": 211,
      "đ": 212,
      "Ē": 213,
      "ē": 214,
      "Ĕ": 215,
      "ĕ": 216,
      "Ė": 217,
      "ė": 218,
      "Ę": 219,
      "ę": 220,
      "Ě": 221,
      "ě": 222,
      "Ĝ": 223,
      "ĝ": 224,
      "Ğ": 225,
      "ğ": 226,
      "Ġ": 227,
      "ġ": 228,
      "Ģ": 229,
      "ģ": 230,
      "Ĥ": 231,
      "ĥ": 232,
      "Ħ": 233,
      "ħ": 234,
      "Ĩ": 235,
      "ĩ": 236,
      "Ī": 237,
      "ī": 238,
      "Ĭ": 239,
      "ĭ": 240,
      "Į": 241,
      "į": 242,
      "İ": 243,
      "ı": 244,
      "Ĳ": 245,
      "ĳ": 246,
      "Ĵ": 247,
      "ĵ": 248,
      "Ķ": 249,
      "ķ": 250,
      "ĸ": 251,
      "Ĺ": 252,
      "ĺ": 253,
      "Ļ": 254,
      "ļ": 255,
      "Ľ": 256,
      "ľ": 257,
      "Ŀ": 258,
      "ŀ": 259,
      "Ł": 260,
      "ł": 261,
      "Ń": 262,
      "in": 263,
      "Ġa": 264,
      "Ġt": 265,
      "re": 266,
      "at": 267,
      "on": 268,
      "Ġc": 269,
      "he": 270,
      "en": 271,
      "al": 272,
      "Ġs": 273,
      "Ġp": 274,
      "Ġo": 275,
      "er": 276,
      "is": 277,
      "ed": 278,
      "ic": 279,
      "Ġm": 280,
      "Ġthe": 281,
      "it": 282,
      "Ġw": 283,
      "Ġin": 284,
      "Ġan": 285,
      "as": 286,
      "or": 287,
      "ar": 288,
      "ion": 289,
      "Ġof": 290,
      "es": 291,
      "ro": 292,
      "Ġb": 293,
      "an": 294,
      "Ġand": 295,
      "Ġd": 296,
      "Ġf": 297,
      "ent": 298,
      "Ġn": 299,
      "Ġl": 300,
      "om": 301,
      "el": 302,
      "ct": 303,
      "Ġre": 304,
      "Ġe": 305,
      "os": 306,
      "ol": 307,
      "Ġ(": 308,
      "iv": 309,
      "Ġh": 310,
      "ing": 311,
      "ul": 312,
      "op": 313,
      "us": 314,
      "ith": 315,
      "Ġwith": 316,
      "id": 317,
      "ig": 318,
      "ation": 319,
      "et": 320,
      "Ġg": 321,
      "im": 322,
      "ra": 323,
      "Ġto": 324,
      "un": 325,
      "um": 326,
      "oc": 327,
      "Ġno": 328,
      "ur": 329,
      "ere": 330,
      "if": 331,
      "Ġth": 332,
      "res": 333,
      "il": 334,
      "ell": 335,
      "ect": 336,
      "Ġst": 337,
      "ly": 338,
      "ag": 339,
      "ist": 340,
      "ive": 341,
      "Ġpro": 342,
      "og": 343,
      "Ġex": 344,
      "le": 345,
      "Ġis": 346,
      "ical": 347,
      "ut": 348,
      "am": 349,
      "Ġcon": 350,
      "Ġfor": 351,
      "Ġcell": 352,
      "ce": 353,
      "ec": 354,
      "ated": 355,
      "st": 356,
      "oma": 357,
      "Ġpat": 358,
      "ph": 359,
      "ow": 360,
      "Ġwas": 361,
      "Ġ1": 362,
      "Ġas": 363,
      "ate": 364,
      "Ġv": 365,
      "ast": 366,
      "Ġr": 367,
      "od": 368,
      "Ġwere": 369,
      "uc": 370,
      "ot": 371,
      "ents": 372,
      "yp": 373,
      "arc": 374,
      "ial": 375,
      "ant": 376,
      "Ġbi": 377,
      "Ġad": 378,
      "ter": 379,
      "olog": 380,
      "Ġres": 381,
      "Ġpati": 382,
      "ib": 383,
      "anc": 384,
      "ac": 385,
      "Ġnot": 386,
      "ous": 387,
      "ops": 388,
      "ity": 389,
      "pl": 390,
      ").": 391,
      "ign": 392,
      "igh": 393,
      "ev": 394,
      "Ġon": 395,
      "arcin": 396,
      "Ġbiops": 397,
      "em": 398,
      "up": 399,
      "Ġare": 400,
      "ain": 401,
      "ult": 402,
      "Ġtum": 403,
      "Ġcom": 404,
      "Ġbiopsy": 405,
      "Ġch": 406,
      "Ġ2": 407,
      "ir": 408,
      "qu": 409,
      "ular": 410,
      "ud": 411,
      "Ġim": 412,
      "se": 413,
      "Ġal": 414,
      "ia": 415,
      "Ġor": 416,
      "ym": 417,
      "est": 418,
      "yt": 419,
      "ase": 420,
      "rom": 421,
      "Ġpatients": 422,
      "Ġbe": 423,
      "cl": 424,
      "ress": 425,
      "arcinoma": 426,
      "Ġtumor": 427,
      "ad": 428,
      "Ġat": 429,
      "orm": 430,
      "end": 431,
      "Ġne": 432,
      "und": 433,
      "ost": 434,
      "Ġcells": 435,
      "ort": 436,
      "Ġby": 437,
      "act": 438,
      "Ġdi": 439,
      "Ġsh": 440,
      "Ġthat": 441,
      "ve": 442,
      "ary": 443,
      "ys": 444,
      "Ġper": 445,
      "cc": 446,
      "Ġmet": 447,
      "her": 448,
      "ific": 449,
      "ment": 450,
      "Ġinv": 451,
      "osis": 452,
      "ine": 453,
      "de": 454,
      "agn": 455,
      "ight": 456,
      "ab": 457,
      "Ġinf": 458,
      "ymph": 459,
      "Ġhe": 460,
      "Ġlymph": 461,
      "ore": 462,
      "Ġexp": 463,
      "Ġev": 464,
      "Ġcl": 465,
      "ran": 466,
      "th": 467,
      "ef": 468,
      "ub": 469,
      "Ġpres": 470,
      "Ġ3": 471,
      "Ġsp": 472,
      "Ġdiagn": 473,
      "ies": 474,
      "ip": 475,
      "iff": 476,
      "nt": 477,
      "Ġmar": 478,
      "ure": 479,
      "age": 480,
      "Ġhist": 481,
      "Ġcol": 482,
      "Ġthis": 483,
      "ence": 484,
      "Ġwe": 485,
      "ression": 486,
      "ative": 487,
      "all": 488,
      "ue": 489,
      "Ġsur": 490,
      "ess": 491,
      "ath": 492,
      "iss": 493,
      "Ġint": 494,
      "),": 495,
      "reat": 496,
      "iz": 497,
      "ions": 498,
      "Ġk": 499,
      "Ġcarcinoma": 500,
      "ancer": 501,
      "00": 502,
      "Ġstud": 503,
      "Ġfrom": 504,
      "Ġgro": 505,
      "ay": 506,
      "Ġab": 507,
      "Ġcomp": 508,
      "Ġpre": 509,
      "Ġnote": 510,
      "Ġdiff": 511,
      "Ġcancer": 512,
      "Ġwh": 513,
      "ely": 514,
      "Ġdis": 515,
      "ap": 516,
      "ch": 517,
      "mun": 518,
      "Ġ0": 519,
      "port": 520,
      "Ġpresent": 521,
      "Ġass": 522,
      "Ġap": 523,
      "oph": 524,
      "Ġsign": 525,
      "ug": 526,
      "Ġshow": 527,
      "Ġus": 528,
      "evel": 529,
      "Ġresult": 530,
      "Ġaden": 531,
      "ological": 532,
      "iated": 533,
      "Ġse": 534,
      "ros": 535,
      "Ġtiss": 536,
      "Ġimmun": 537,
      "ff": 538,
      "erm": 539,
      "oid": 540,
      "Ġmuc": 541,
      "hem": 542,
      "ear": 543,
      "Ġra": 544,
      "ge": 545,
      "ens": 546,
      "erent": 547,
      "ver": 548,
      "uct": 549,
      "opath": 550,
      "ection": 551,
      "Ġcons": 552,
      "Ġco": 553,
      "ases": 554,
      "Ġthere": 555,
      "atic": 556,
      "Ġresults": 557,
      "Ġ4": 558,
      "Ġcont": 559,
      "ormal": 560,
      "Ġinc": 561,
      "omy": 562,
      "Ġexpression": 563,
      "ocyt": 564,
      "one": 565,
      "rap": 566,
      "Ġstain": 567,
      "ied": 568,
      "Ġsc": 569,
      "Ġright": 570,
      "Ġlef": 571,
      "Ġgen": 572,
      "Ġleft": 573,
      "pit": 574,
      "Ġclin": 575,
      "Ġ5": 576,
      "Ġmal": 577,
      "Ġcolon": 578,
      "ill": 579,
      "Ġrec": 580,
      "ased": 581,
      "Ġtissue": 582,
      "Ġsignific": 583,
      "ers": 584,
      "Ġde": 585,
      "ind": 586,
      "ations": 587,
      "pt": 588,
      "Ġend": 589,
      "ron": 590,
      "Ġgroup": 591,
      "hel": 592,
      "and": 593,
      "erv": 594,
      "Ġstudy": 595,
      "Ġpos": 596,
      "Ġmucos": 597,
      "kin": 598,
      "amin": 599,
      "Ġanal": 600,
      "Ġmic": 601,
      "itis": 602,
      "Ġ<": 603,
      "Ġpl": 604,
      "amm": 605,
      "Ġdifferent": 606,
      "Ġsignificant": 607,
      "ostic": 608,
      "ory": 609,
      "Ġun": 610,
      "Ġpar": 611,
      "rans": 612,
      "Ġes": 613,
      "yst": 614,
      "Ġsm": 615,
      "quam": 616,
      "are": 617,
      "Ġsub": 618,
      "|>": 619,
      "idence": 620,
      "ional": 621,
      "Ġmucosa": 622,
      "Ġspec": 623,
      "Ġob": 624,
      "ave": 625,
      "ang": 626,
      "Ġprost": 627,
      "ass": 628,
      "Ġsquam": 629,
      "ob": 630,
      "Ġpol": 631,
      "Ġact": 632,
      "Ġtreat": 633,
      "Ġclinical": 634,
      "alu": 635,
      "Ġ=": 636,
      "ther": 637,
      "Ġadenoc": 638,
      "ri": 639,
      "ric": 640,
      "Ġsquamous": 641,
      "ology": 642,
      "inal": 643,
      "Ġhyp": 644,
      "Ġant": 645,
      "Ġhistopath": 646,
      "ocal": 647,
      "Ġdise": 648,
      "Ġeff": 649,
      "Ġfib": 650,
      "Ġtrans": 651,
      "Ġhigh": 652,
      "Ġbet": 653,
      "ose": 654,
      "Ġit": 655,
      "Ġinfl": 656,
      "ident": 657,
      "sp": 658,
      "Ġapp": 659,
      "Ġskin": 660,
      "Ġreport": 661,
      "Ġlevel": 662,
      "Ġles": 663,
      "Ġind": 664,
      "gin": 665,
      "rade": 666,
      "Ġdet": 667,
      "Ġprog": 668,
      "Ġinvas": 669,
      "asia": 670,
      "Ġpath": 671,
      "erat": 672,
      "clud": 673,
      "Ġbl": 674,
      "itive": 675,
      "form": 676,
      "Ġadenocarcinoma": 677,
      "Ġincre": 678,
      "Ġresp": 679,
      "vi": 680,
      "oll": 681,
      "Ġtreatment": 682,
      "Ġthese": 683,
      "ified": 684,
      "Ġexamin": 685,
      "Ġmeth": 686,
      "ected": 687,
      "Ġassoc": 688,
      "Ġmod": 689,
      "Ġcd": 690,
      "Ġmargin": 691,
      "ung": 692,
      "cr": 693,
      "Ġ6": 694,
      "ance": 695,
      "Ġcyt": 696,
      "Ġreg": 697,
      "Ġevalu": 698,
      "mon": 699,
      "Ġmalign": 700,
      "pithel": 701,
      "ologic": 702,
      "Ġall": 703,
      "clus": 704,
      "Ġmat": 705,
      "te": 706,
      "Ġmetast": 707,
      "Ġdisease": 708,
      "Ġgl": 709,
      "Ġund": 710,
      "Ġcases": 711,
      "Ġac": 712,
      "oh": 713,
      "Ġident": 714,
      "rapy": 715,
      "di": 716,
      "year": 717,
      "Ġfe": 718,
      "Ġfoll": 719,
      "we": 720,
      "imen": 721,
      "Ġext": 722,
      "ich": 723,
      "Ġdiagnosis": 724,
      "olv": 725,
      "Ġar": 726,
      "Ġaf": 727,
      "Ġevidence": 728,
      "Ġdiagnostic": 729,
      "ype": 730,
      "ochem": 731,
      "Ġinflamm": 732,
      "ectomy": 733,
      "cis": 734,
      "Ġmay": 735,
      "opl": 736,
      "Ġcor": 737,
      "asm": 738,
      "ures": 739,
      "ox": 740,
      "Ġnod": 741,
      "Ġanalys": 742,
      "ile": 743,
      "Ġinter": 744,
      "Ġesoph": 745,
      "ors": 746,
      "Ġhave": 747,
      "Ġrat": 748,
      "Ġmethod": 749,
      "plasia": 750,
      "Ġgast": 751,
      "Ġbut": 752,
      "able": 753,
      "Ġwhich": 754,
      "Ġmult": 755,
      "Ġsup": 756,
      "Ġfo": 757,
      "ide": 758,
      "Ġeffect": 759,
      "Ġmed": 760,
      "):": 761,
      "yl": 762,
      "ively": 763,
      "eral": 764,
      "Ġ7": 765,
      "urre": 766,
      "ized": 767,
      "omas": 768,
      "rol": 769,
      "Ġafter": 770,
      "ival": 771,
      "tic": 772,
      "Ġinclud": 773,
      "ogen": 774,
      "Ġag": 775,
      "Ġsurv": 776,
      "Ġconsist": 777,
      "ak": 778,
      "Ġconclus": 779,
      "inding": 780,
      "ack": 781,
      "ween": 782,
      "Ġmon": 783,
      "Ġbetween": 784,
      "ohist": 785,
      "Ġinvolv": 786,
      "Ġnon": 787,
      "Ġsurg": 788,
      "Ġ9": 789,
      "Ġlow": 790,
      "ual": 791,
      "see": 792,
      "Ġen": 793,
      "Ġexcis": 794,
      "spec": 795,
      "na": 796,
      "rel": 797,
      "Ġhas": 798,
      "ms": 799,
      "ree": 800,
      "Ġpolyp": 801,
      "ohistochem": 802,
      "Ġover": 803,
      "Ġlung": 804,
      "Ġassociated": 805,
      "omet": 806,
      "Ġsurvival": 807,
      "Ġperform": 808,
      "Ġle": 809,
      "Ġimmunohistochem": 810,
      "Ġmy": 811,
      "Ġtumors": 812,
      "Ġunder": 813,
      "so": 814,
      "normal": 815,
      "Ġnec": 816,
      "ocytes": 817,
      "atory": 818,
      "Ġlevels": 819,
      "Ġhyper": 820,
      "gative": 821,
      "ome": 822,
      "Ġabnormal": 823,
      "Ġthan": 824,
      "Ġpr": 825,
      "cop": 826,
      "ered": 827,
      "Ġalso": 828,
      "Ġme": 829,
      "ivity": 830,
      "uced": 831,
      "Ġhad": 832,
      "ari": 833,
      "Ġ-": 834,
      "Ġbeen": 835,
      "Ġfinding": 836,
      "Ġgrade": 837,
      "tein": 838,
      "ne": 839,
      "Ġanalysis": 840,
      "eration": 841,
      "yn": 842,
      "Ġcan": 843,
      "ucle": 844,
      "Ġcm": 845,
      "ry": 846,
      "Ġchang": 847,
      "Ġexcision": 848,
      "oth": 849,
      "gest": 850,
      "acter": 851,
      "Ġsmall": 852,
      "Ġro": 853,
      "Ġshowed": 854,
      "Ġtw": 855,
      "Ġdist": 856,
      "Ġben": 857,
      "Ġmethods": 858,
      "Ġ<|": 859,
      "Ġser": 860,
      "Ġ8": 861,
      "10": 862,
      "ared": 863,
      "Ġchanges": 864,
      "roid": 865,
      "%)": 866,
      "veal": 867,
      "Ġidentified": 868,
      "Ġcase": 869,
      "Ġfollow": 870,
      "Ġbre": 871,
      "Ġepithel": 872,
      "Ġrece": 873,
      "Ġreveal": 874,
      "date": 875,
      "Ġmost": 876,
      "rosis": 877,
      "ix": 878,
      "ugh": 879,
      "per": 880,
      "Ġj": 881,
      "roph": 882,
      "hen": 883,
      "Ġintra": 884,
      "Ġmore": 885,
      "Ġnormal": 886,
      "astic": 887,
      "Ġout": 888,
      "Ġfact": 889,
      "Ġconsistent": 890,
      "Ġfindings": 891,
      "Ġnegative": 892,
      "Ġel": 893,
      "ild": 894,
      "Ġi": 895,
      "Ġup": 896,
      "dit": 897,
      "Ġdes": 898,
      "ronic": 899,
      "Ġfeat": 900,
      "str": 901,
      "ever": 902,
      "Ġacc": 903,
      "uld": 904,
      "unct": 905,
      "out": 906,
      "Ġpatient": 907,
      "Ġprotein": 908,
      "Ġnode": 909,
      "Ġperformed": 910,
      "Ġincreased": 911,
      "Ġsignificantly": 912,
      "ery": 913,
      "ew": 914,
      "Ġchronic": 915,
      "Ġone": 916,
      "Ġpositive": 917,
      "row": 918,
      "Ġsug": 919,
      "tr": 920,
      "Ġfl": 921,
      "ective": 922,
      "Ġconf": 923,
      "hib": 924,
      "ard": 925,
      "Ġsuggest": 926,
      "Ġca": 927,
      "othe": 928,
      "Ġback": 929,
      "01": 930,
      "Ġdevel": 931,
      "Ġbreast": 932,
      "Ġprostate": 933,
      "Ġtub": 934,
      "round": 935,
      "ement": 936,
      "Ġusing": 937,
      "Ġprim": 938,
      "hibit": 939,
      "nce": 940,
      "cular": 941,
      "ium": 942,
      "Ġexamined": 943,
      "Ġdevelop": 944,
      "our": 945,
      "Ġprol": 946,
      "Ġbas": 947,
      "Ġhistopathological": 948,
      "Ġdys": 949,
      "Ġfeatures": 950,
      "Ġlesions": 951,
      "Ġph": 952,
      "Ġinvasion": 953,
      "Ġmalignanc": 954,
      "ior": 955,
      "Ġfra": 956,
      "ulation": 957,
      "Ġrel": 958,
      "iver": 959,
      "Ġman": 960,
      "ute": 961,
      "Ġfocal": 962,
      "Ġwell": 963,
      "Ġabnormality": 964,
      "Ġpred": 965,
      "view": 966,
      "Ġbenign": 967,
      "ond": 968,
      "Ġtwo": 969,
      "Ġcompared": 970,
      "imal": 971,
      "Ġam": 972,
      "Ġother": 973,
      "med": 974,
      "Ġsit": 975,
      "reg": 976,
      "Ġcorrel": 977,
      "Ġboth": 978,
      "der": 979,
      "Ġ10": 980,
      "iation": 981,
      "ian": 982,
      "Ġstage": 983,
      "Ġreview": 984,
      "ber": 985,
      "Ġprogn": 986,
      "Ġcompl": 987,
      "gen": 988,
      "Ġmark": 989,
      "erative": 990,
      "Ġhow": 991,
      "Ġdec": 992,
      "Ġour": 993,
      "Ġsyn": 994,
      "Ġocc": 995,
      "Ġradi": 996,
      "Ġrare": 997,
      "Ġyear": 998,
      "Ġprolif": 999,
      "Ġtest": 1000,
      "orph": 1001,
      "ments": 1002,
      "Ġnucle": 1003,
      "Ġchar": 1004,
      "tern": 1005,
      "Ġbone": 1006,
      "Ġreact": 1007,
      "Ġsev": 1008,
      "arg": 1009,
      "ically": 1010,
      "Ġobs": 1011,
      "osed": 1012,
      "specimen": 1013,
      "Ġprimary": 1014,
      "ays": 1015,
      "Ġnum": 1016,
      "Ġpanc": 1017,
      "ogra": 1018,
      "Ġatyp": 1019,
      "ectively": 1020,
      "Ġtype": 1021,
      "Ġmalignancy": 1022,
      "oplasm": 1023,
      "otherapy": 1024,
      "ined": 1025,
      "ating": 1026,
      "Ġer": 1027,
      "Ġdat": 1028,
      "enc": 1029,
      "Ġcontrol": 1030,
      "Ġdem": 1031,
      "ral": 1032,
      "cent": 1033,
      "Ġ(<": 1034,
      "Ġinflammation": 1035,
      "Ġmarrow": 1036,
      "ility": 1037,
      "Ġhowever": 1038,
      "isk": 1039,
      "erved": 1040,
      "ates": 1041,
      "Ġimp": 1042,
      "asis": 1043,
      "Ġduct": 1044,
      "Ġseen": 1045,
      "Ġcharacter": 1046,
      "Ġred": 1047,
      "Ġhem": 1048,
      "ech": 1049,
      "ageal": 1050,
      "cell": 1051,
      "Ġesophag": 1052,
      "ong": 1053,
      "scc": 1054,
      "reated": 1055,
      "Ġgastric": 1056,
      "Ġcr": 1057,
      "Ġsam": 1058,
      "onstr": 1059,
      "|>):": 1060,
      "Ġhum": 1061,
      "Ġfound": 1062,
      "ood": 1063,
      "Ġrep": 1064,
      "Ġpo": 1065,
      "Ġused": 1066,
      "ach": 1067,
      "ential": 1068,
      "Ġendomet": 1069,
      "Ġchem": 1070,
      "use": 1071,
      "etic": 1072,
      "Ġmass": 1073,
      "Ġfrag": 1074,
      "Ġrespon": 1075,
      "Ġliver": 1076,
      "ground": 1077,
      "Ġbackground": 1078,
      "ted": 1079,
      "iple": 1080,
      "Ġappro": 1081,
      "ural": 1082,
      "min": 1083,
      "Ġstudies": 1084,
      "Ġhep": 1085,
      "Ġhuman": 1086,
      "ascular": 1087,
      "ail": 1088,
      "ex": 1089,
      "ov": 1090,
      "Ġ(<|": 1091,
      "Ġrem": 1092,
      "Ġyears": 1093,
      "Ġmut": 1094,
      "Ġprostatic": 1095,
      "Ġinvest": 1096,
      "gf": 1097,
      "Ġinhibit": 1098,
      "ep": 1099,
      "Ġdef": 1100,
      "Ġinvestig": 1101,
      "Ġov": 1102,
      "Ġoverall": 1103,
      "Ġcyst": 1104,
      "Ġassess": 1105,
      "own": 1106,
      "Ġgrow": 1107,
      "Ġmultiple": 1108,
      "Ġdemonstr": 1109,
      "Ġpot": 1110,
      "'s": 1111,
      "Ġsuc": 1112,
      "Ġmild": 1113,
      "ts": 1114,
      "aging": 1115,
      "Ġep": 1116,
      "yroid": 1117,
      "Ġresection": 1118,
      "ik": 1119,
      "ived": 1120,
      "uro": 1121,
      "Ġmodel": 1122,
      "Ġnodes": 1123,
      "Ġonly": 1124,
      "Ġwho": 1125,
      "Ġits": 1126,
      "iltr": 1127,
      "Ġhig": 1128,
      "ord": 1129,
      "Ġimmunohistochemical": 1130,
      "iab": 1131,
      "Ġ+": 1132,
      "%,": 1133,
      "Ġproc": 1134,
      "Ġage": 1135,
      "Ġmel": 1136,
      "tal": 1137,
      "Ġret": 1138,
      "Ġem": 1139,
      "uction": 1140,
      "Ġobserved": 1141,
      "Ġaddit": 1142,
      "Ġrevealed": 1143,
      "Ġrecurre": 1144,
      "Ġpolypectomy": 1145,
      "Ġconclusion": 1146,
      "ract": 1147,
      "Ġlar": 1148,
      "Ġfibro": 1149,
      "Ġinvasive": 1150,
      "Ġrisk": 1151,
      "Ġcommon": 1152,
      "olec": 1153,
      "Ġstaining": 1154,
      "ace": 1155,
      "nal": 1156,
      "Ġlesion": 1157,
      "Ġqu": 1158,
      "hed": 1159,
      "Ġcarcin": 1160,
      "uring": 1161,
      "Ġdata": 1162,
      "Ġinfiltr": 1163,
      "Ġgene": 1164,
      "Ġmonth": 1165,
      "Ġderm": 1166,
      "Ġpancreat": 1167,
      "Ġcar": 1168,
      "Ġstat": 1169,
      "old": 1170,
      "Ġtherapy": 1171,
      "Ġgroups": 1172,
      "Ġproliferation": 1173,
      "Ġmm": 1174,
      "Ġdeterm": 1175,
      "gan": 1176,
      "Ġma": 1177,
      "ization": 1178,
      "ateral": 1179,
      "Ġmicro": 1180,
      "Ġfur": 1181,
      "Ġinto": 1182,
      "ification": 1183,
      "av": 1184,
      "Ġinj": 1185,
      "ograph": 1186,
      "Ġgrowth": 1187,
      "Ġtumour": 1188,
      "Ġir": 1189,
      "apill": 1190,
      "Ġmelan": 1191,
      "Ġlob": 1192,
      "Ġfurther": 1193,
      "Ġtheir": 1194,
      "Ġacute": 1195,
      "pos": 1196,
      "Ġrespectively": 1197,
      "Ġreported": 1198,
      "Ġsim": 1199,
      "Ġtr": 1200,
      "arly": 1201,
      "Ġinflammatory": 1202,
      "Ġmater": 1203,
      "Ġmice": 1204,
      "ek": 1205,
      "Ġshows": 1206,
      "Ġinvolved": 1207,
      "ystem": 1208,
      "ody": 1209,
      "Ġpotential": 1210,
      "Ġindic": 1211,
      "Ġincluding": 1212,
      "Ġdecre": 1213,
      "ize": 1214,
      "Ġvari": 1215,
      "ible": 1216,
      "of": 1217,
      "Ġmonths": 1218,
      "ophil": 1219,
      "Ġwhe": 1220,
      "Ġsystem": 1221,
      "Ġesophageal": 1222,
      "pend": 1223,
      "Ġmetastatic": 1224,
      "Ġsurgical": 1225,
      "Ġconclusions": 1226,
      "ained": 1227,
      "Ġlarge": 1228,
      "osin": 1229,
      "Ġesophagus": 1230,
      "Ġhigher": 1231,
      "cle": 1232,
      "Ġpost": 1233,
      "ough": 1234,
      "Ġcent": 1235,
      "Ġsuper": 1236,
      "Ġmalignant": 1237,
      "Ġaim": 1238,
      "Ġgran": 1239,
      "eous": 1240,
      "ire": 1241,
      "Ġcomplet": 1242,
      "Ġmg": 1243,
      "Ġtim": 1244,
      "Ġgland": 1245,
      "Ġnumber": 1246,
      "ages": 1247,
      "otic": 1248,
      "quent": 1249,
      "ok": 1250,
      "Ġspecimen": 1251,
      "emb": 1252,
      "Ġplasm": 1253,
      "Ġfragments": 1254,
      "Ġfibrosis": 1255,
      "Ġcolonic": 1256,
      "ities": 1257,
      "Ġtotal": 1258,
      "Ġresponse": 1259,
      "ark": 1260,
      "imens": 1261,
      "Ġdu": 1262,
      "Ġclass": 1263,
      "Ġpredic": 1264,
      "Ġtreated": 1265,
      "roscop": 1266,
      "terior": 1267,
      "Ġform": 1268,
      "Ġstains": 1269,
      "Ġdr": 1270,
      "Ġmetastasis": 1271,
      "ypes": 1272,
      "istry": 1273,
      "ration": 1274,
      "ould": 1275,
      "Ġlower": 1276,
      "Ġmaterial": 1277,
      "Ġ19": 1278,
      "Ġadenoma": 1279,
      "Ġevaluation": 1280,
      "20": 1281,
      "Ġpancreatic": 1282,
      "Ġsl": 1283,
      "ound": 1284,
      "Ġdysplasia": 1285,
      "Ġconfir": 1286,
      "Ġkerat": 1287,
      "Ġsurgery": 1288,
      "Ġmus": 1289,
      "Ġstr": 1290,
      "ues": 1291,
      "Ġevaluated": 1292,
      "plastic": 1293,
      "Ġorgan": 1294,
      "Ġmyel": 1295,
      "anced": 1296,
      "ulated": 1297,
      "Ġeffects": 1298,
      "Ġinde": 1299,
      "Ġexamination": 1300,
      "16": 1301,
      "Ġcal": 1302,
      "oden": 1303,
      "Ġsuch": 1304,
      "istic": 1305,
      "Ġprov": 1306,
      "Ġwithin": 1307,
      "Ġpattern": 1308,
      "Ġactivity": 1309,
      "Ġest": 1310,
      "Ġmorph": 1311,
      "Ġfactor": 1312,
      "cs": 1313,
      "Ġval": 1314,
      "Ġoral": 1315,
      "Ġspecific": 1316,
      "Ġrats": 1317,
      "Ġthree": 1318,
      "Ġwithout": 1319,
      "Ġmid": 1320,
      "unt": 1321,
      "Ġeosin": 1322,
      "Ġ20": 1323,
      "Ġabs": 1324,
      "oscop": 1325,
      "Ġrole": 1326,
      "Ġepithelial": 1327,
      "Ġlocal": 1328,
      "pha": 1329,
      "Ġ200": 1330,
      "Ġy": 1331,
      "arget": 1332,
      "Ġcomb": 1333,
      "Ġ12": 1334,
      "Ġatypical": 1335,
      "Ġfre": 1336,
      "art": 1337,
      "Ġsec": 1338,
      "Ġfunct": 1339,
      "Ġbasal": 1340,
      "/-": 1341,
      "rain": 1342,
      "Ġhp": 1343,
      "ten": 1344,
      "Ġcellular": 1345,
      "com": 1346,
      "Ġmargins": 1347,
      "Ġpoor": 1348,
      "esis": 1349,
      "Ġmolec": 1350,
      "ules": 1351,
      "Ġtubular": 1352,
      "operative": 1353,
      "Ġsome": 1354,
      "12": 1355,
      "Ġearly": 1356,
      "idual": 1357,
      "Ġduring": 1358,
      "Ġendometri": 1359,
      "Ġduoden": 1360,
      "Ġductal": 1361,
      "Ġanti": 1362,
      "les": 1363,
      "Ġplasma": 1364,
      "ism": 1365,
      "fl": 1366,
      "Ġhy": 1367,
      "Ġpredict": 1368,
      "Ġprom": 1369,
      "Ġadv": 1370,
      "Ġblood": 1371,
      "grade": 1372,
      "Ġthyroid": 1373,
      "Ġimport": 1374,
      "Ġcerv": 1375,
      "Ġmin": 1376,
      "stit": 1377,
      "bl": 1378,
      "Ġappear": 1379,
      "estinal": 1380,
      "Ġrate": 1381,
      "ps": 1382,
      "ret": 1383,
      "Ġagg": 1384,
      "Ġsampl": 1385,
      "ocytic": 1386,
      "Ġinfection": 1387,
      "Ġdifferentiated": 1388,
      "pendent": 1389,
      "Ġhistological": 1390,
      "isms": 1391,
      "Ġtarget": 1392,
      "53": 1393,
      "aneous": 1394,
      "Ġimaging": 1395,
      "ressed": 1396,
      "itivity": 1397,
      "Ġhyperplasia": 1398,
      "ution": 1399,
      "hes": 1400,
      "epithel": 1401,
      "Ġpresence": 1402,
      "Ġfactors": 1403,
      "ock": 1404,
      "opt": 1405,
      "icular": 1406,
      "ately": 1407,
      "Ġkn": 1408,
      "ici": 1409,
      "Ġx": 1410,
      "vent": 1411,
      "Ġpapill": 1412,
      "Ġweek": 1413,
      "io": 1414,
      "13": 1415,
      "Ġcorrelation": 1416,
      "Ġactiv": 1417,
      "Ġimmunohistochemistry": 1418,
      "Ġtissues": 1419,
      "crib": 1420,
      "Ġobj": 1421,
      "Ġreceived": 1422,
      "Ġthose": 1423,
      "Ġneuro": 1424,
      "ines": 1425,
      "ish": 1426,
      "ains": 1427,
      "acent": 1428,
      "Ġeosinophil": 1429,
      "Ġcould": 1430,
      "Ġpd": 1431,
      "Ġrecept": 1432,
      "Ġtime": 1433,
      "âĢ": 1434,
      "Ġdevelopment": 1435,
      "Ġfir": 1436,
      "Ġmeas": 1437,
      "uration": 1438,
      "int": 1439,
      "yth": 1440,
      "Ġmicroscop": 1441,
      "xim": 1442,
      "Ġpart": 1443,
      "Ġcoll": 1444,
      "Ġasp": 1445,
      "Ġposs": 1446,
      "iderm": 1447,
      "Ġimpro": 1448,
      "ilar": 1449,
      "Ġreactive": 1450,
      "ections": 1451,
      "Ġheal": 1452,
      "omat": 1453,
      "Ġprognostic": 1454,
      "Ġneck": 1455,
      "Ġaut": 1456,
      "uv": 1457,
      "atin": 1458,
      "Ġfoc": 1459,
      "epithelial": 1460,
      "ifferent": 1461,
      "ify": 1462,
      "fore": 1463,
      "Ġconsid": 1464,
      "Ġdifferentiation": 1465,
      "Ġhistopathology": 1466,
      "Ġfirst": 1467,
      "Ġ[": 1468,
      "Ġshould": 1469,
      "urrent": 1470,
      "Ġhepat": 1471,
      "rac": 1472,
      "though": 1473,
      "Ġtherap": 1474,
      "echan": 1475,
      "Ġchemotherapy": 1476,
      "Ġwhen": 1477,
      "pital": 1478,
      "Ġnew": 1479,
      "ospital": 1480,
      "Ġmit": 1481,
      "Ġsite": 1482,
      "Ġrecurrence": 1483,
      "Ġalthough": 1484,
      "att": 1485,
      "ste": 1486,
      "Ġcomplete": 1487,
      "Ġepithelium": 1488,
      "Ġhospital": 1489,
      "Ġscore": 1490,
      "rough": 1491,
      "yz": 1492,
      "icity": 1493,
      "Ġmain": 1494,
      "Ġdiffere": 1495,
      "Ġsens": 1496,
      "Ġii": 1497,
      "Ġmechan": 1498,
      "Ġnecrosis": 1499,
      "Ġperip": 1500,
      "asts": 1501,
      "Ġneed": 1502,
      "Ġsize": 1503,
      "11": 1504,
      "amet": 1505,
      "Ġdetected": 1506,
      "app": 1507,
      "ple": 1508,
      "Ġprogression": 1509,
      "Ġdecreased": 1510,
      "Ġbody": 1511,
      "rect": 1512,
      "Ġent": 1513,
      "ite": 1514,
      "ury": 1515,
      "Ġlymphoma": 1516,
      "Ġcore": 1517,
      "Ġwhile": 1518,
      "Ġexper": 1519,
      "Ġcharacteristic": 1520,
      "Ġanalyz": 1521,
      "Ġgenes": 1522,
      "Ġsamples": 1523,
      "ifferentiated": 1524,
      "essel": 1525,
      "Ġ15": 1526,
      "Ġcontr": 1527,
      "Ġactive": 1528,
      "Ġstoma": 1529,
      "Ġadj": 1530,
      "Ġprognosis": 1531,
      "iqu": 1532,
      "Ġcle": 1533,
      "Ġbased": 1534,
      "ition": 1535,
      "Ġmeta": 1536,
      "Ġsevere": 1537,
      "Ġserum": 1538,
      "Ġsee": 1539,
      "Ġthrough": 1540,
      "Ġcalc": 1541,
      "mong": 1542,
      "05": 1543,
      "Ġamong": 1544,
      "ule": 1545,
      "vious": 1546,
      "Ġstomach": 1547,
      "ason": 1548,
      "Ġmolecular": 1549,
      "ortal": 1550,
      "Ġcarcinomas": 1551,
      "ike": 1552,
      "ially": 1553,
      "val": 1554,
      "induced": 1555,
      "fer": 1556,
      "Ġdisc": 1557,
      "Ġlymphoid": 1558,
      "oss": 1559,
      "Ġeryth": 1560,
      "Ġdays": 1561,
      "Ġhistologic": 1562,
      "ori": 1563,
      "ogenesis": 1564,
      "ending": 1565,
      "ides": 1566,
      "Ġneoplasm": 1567,
      "Ġlip": 1568,
      "Ġunderw": 1569,
      "ax": 1570,
      "001": 1571,
      "Ġil": 1572,
      "rome": 1573,
      "Ġextens": 1574,
      "Ġrenal": 1575,
      "ination": 1576,
      "Ġincluded": 1577,
      "eut": 1578,
      "Ġinjury": 1579,
      "..": 1580,
      "Ġz": 1581,
      "Ġcompon": 1582,
      "Ġunderwent": 1583,
      "Ġrect": 1584,
      "Ġupper": 1585,
      "Ġdemonstrated": 1586,
      "Ġimportant": 1587,
      "Ġlim": 1588,
      "Ġfem": 1589,
      "Ġgastro": 1590,
      "ogn": 1591,
      "ography": 1592,
      "Ġspecimens": 1593,
      "eng": 1594,
      "Ġmean": 1595,
      "reas": 1596,
      "icial": 1597,
      "omin": 1598,
      "Ġmes": 1599,
      "Ġperi": 1600,
      "Ġperipher": 1601,
      "Ġsel": 1602,
      "Ġloc": 1603,
      "Ġlab": 1604,
      "|>;": 1605,
      "Ġapopt": 1606,
      "Ġdescrib": 1607,
      "Ġvessel": 1608,
      "Ġconfirmed": 1609,
      "urs": 1610,
      "Ġpathw": 1611,
      "ores": 1612,
      "Ġmaterials": 1613,
      "omen": 1614,
      "specific": 1615,
      "eutic": 1616,
      "crip": 1617,
      "Ġgra": 1618,
      "Ġlateral": 1619,
      "Ġsimilar": 1620,
      "rem": 1621,
      "rial": 1622,
      "Ġshave": 1623,
      "ale": 1624,
      "Ġbec": 1625,
      "Ġtox": 1626,
      "Ġendoc": 1627,
      "Ġpop": 1628,
      "Ġdrug": 1629,
      "minist": 1630,
      "Ġdiagnosed": 1631,
      "erate": 1632,
      "adder": 1633,
      "Ġless": 1634,
      "Ġprop": 1635,
      "Ġrepres": 1636,
      "onal": 1637,
      "15": 1638,
      "ick": 1639,
      "Ġ201": 1640,
      "Ġstrom": 1641,
      "Ġut": 1642,
      "arcoma": 1643,
      "Ġpri": 1644,
      "Ġoste": 1645,
      "Ġcy": 1646,
      "plic": 1647,
      "Ġpartic": 1648,
      "Ġmir": 1649,
      "Ġprior": 1650,
      "Ġgranul": 1651,
      "br": 1652,
      "Ġsus": 1653,
      "Ġneopl": 1654,
      "Ġtypes": 1655,
      "Ġlymphocytes": 1656,
      "plant": 1657,
      "ns": 1658,
      "Ġdo": 1659,
      "duct": 1660,
      "Ġvascular": 1661,
      "Ġcores": 1662,
      "Ġprevious": 1663,
      "Ġperipheral": 1664,
      "verse": 1665,
      "Ġadminist": 1666,
      "Ġmac": 1667,
      "utaneous": 1668,
      "Ġvit": 1669,
      "ency": 1670,
      "Ġweeks": 1671,
      "Ġsing": 1672,
      "Ġcaus": 1673,
      "%),": 1674,
      "kg": 1675,
      "Ġsuperf": 1676,
      "Ġmyeloid": 1677,
      "Ġsupport": 1678,
      "inous": 1679,
      "Ġdeep": 1680,
      "Ġlong": 1681,
      "Ġfour": 1682,
      "Ġop": 1683,
      "Ġneut": 1684,
      "equ": 1685,
      "Ġmr": 1686,
      "ert": 1687,
      "18": 1688,
      "14": 1689,
      "Ġdel": 1690,
      "ided": 1691,
      "Ġnuclear": 1692,
      "Ġaff": 1693,
      "gfr": 1694,
      "Ġmemb": 1695,
      "Ġthey": 1696,
      "Ġ95": 1697,
      "Ġ14": 1698,
      "cript": 1699,
      "Ġgreat": 1700,
      "aining": 1701,
      "Ġvir": 1702,
      "Ġreviewed": 1703,
      "Ġadditional": 1704,
      "Ġreceptor": 1705,
      "Ġdue": 1706,
      "Ġendometrium": 1707,
      "nc": 1708,
      "ening": 1709,
      "Ġcancers": 1710,
      "Ġ30": 1711,
      "Ġerythroid": 1712,
      "Ġsecond": 1713,
      "itu": 1714,
      "Ġhead": 1715,
      "19": 1716,
      "Ġincrease": 1717,
      "Ġdna": 1718,
      "%).": 1719,
      "Ġintestinal": 1720,
      "Ġ>": 1721,
      "Ġratio": 1722,
      "Ġprocess": 1723,
      "Ġpur": 1724,
      "67": 1725,
      "ited": 1726,
      "50": 1727,
      "ange": 1728,
      "Ġsol": 1729,
      "Ġox": 1730,
      "Ġrecogn": 1731,
      "Ġfrequent": 1732,
      "Ġwor": 1733,
      "Ġevaluate": 1734,
      "Ġscc": 1735,
      "Ġsuperficial": 1736,
      "Ġvs": 1737,
      "ished": 1738,
      "ritis": 1739,
      "etal": 1740,
      "Ġhistopathologic": 1741,
      "Ġloss": 1742,
      "ured": 1743,
      "Ġadvanced": 1744,
      "Ġsingle": 1745,
      "Ġdifferential": 1746,
      "type": 1747,
      "abl": 1748,
      "Ġanimal": 1749,
      "ked": 1750,
      "Ġci": 1751,
      "Ġinduced": 1752,
      "Ġinvolvement": 1753,
      "Ġhpv": 1754,
      "Ġsignal": 1755,
      "ull": 1756,
      "Ġav": 1757,
      "obl": 1758,
      "Ġmuscle": 1759,
      "100": 1760,
      "Ġareas": 1761,
      "uk": 1762,
      "Ġmarkers": 1763,
      "Ġ13": 1764,
      "Ġpercent": 1765,
      "Ġdistal": 1766,
      "Ġpresented": 1767,
      "bc": 1768,
      "jor": 1769,
      "Ġtherapeutic": 1770,
      "Ġbiopsies": 1771,
      "Ġstatus": 1772,
      "aps": 1773,
      "rosp": 1774,
      "face": 1775,
      "Ġsmear": 1776,
      "Ġmajor": 1777,
      "igen": 1778,
      "Ġhemat": 1779,
      "cler": 1780,
      "Ġig": 1781,
      "Ġchrom": 1782,
      "Ġsal": 1783,
      "Ġmaturation": 1784,
      "rh": 1785,
      "Ġmarked": 1786,
      "Ġpyl": 1787,
      "Ġanalyzed": 1788,
      "Ġclinic": 1789,
      "ds": 1790,
      "Ġproced": 1791,
      "Ġmetaplasia": 1792,
      "idermal": 1793,
      "Ġobjective": 1794,
      "Ġmetastases": 1795,
      "ressive": 1796,
      "air": 1797,
      "rophil": 1798,
      "aden": 1799,
      "Ġ11": 1800,
      "Ġmembran": 1801,
      "Ġ+/-": 1802,
      "Ġwill": 1803,
      "Ġreduced": 1804,
      "Ġmedian": 1805,
      "Ġct": 1806,
      "eta": 1807,
      "Ġprot": 1808,
      "af": 1809,
      "Ġaddition": 1810,
      "par": 1811,
      "like": 1812,
      "Ġhel": 1813,
      "Ġimprov": 1814,
      "Ġmelanoma": 1815,
      "ont": 1816,
      "chym": 1817,
      "Ġple": 1818,
      "Ġdose": 1819,
      "Ġnev": 1820,
      "ympt": 1821,
      "Ġif": 1822,
      "oses": 1823,
      "Ġmutations": 1824,
      "Ġeach": 1825,
      "pression": 1826,
      "Ġuse": 1827,
      "iven": 1828,
      "da": 1829,
      "Ġintraepithelial": 1830,
      "led": 1831,
      "ational": 1832,
      "Ġmoderate": 1833,
      "aryn": 1834,
      "rin": 1835,
      "Ġ50": 1836,
      "ymptom": 1837,
      "Ġantib": 1838,
      "Ġbrain": 1839,
      "ominant": 1840,
      "Ġacid": 1841,
      "its": 1842,
      "Ġcurrent": 1843,
      "Ġinit": 1844,
      "Ġany": 1845,
      "ising": 1846,
      "Ġatypia": 1847,
      "echn": 1848,
      "cept": 1849,
      "rine": 1850,
      "Ġfollowing": 1851,
      "ss": 1852,
      "Ġpylori": 1853,
      "ting": 1854,
      "usion": 1855,
      "orect": 1856,
      "Ġrecent": 1857,
      "Ġprec": 1858,
      "Ġrequ": 1859,
      "Ġneutrophil": 1860,
      "Ġhere": 1861,
      "tained": 1862,
      "Ġmale": 1863,
      "helial": 1864,
      "ann": 1865,
      "Ġaspir": 1866,
      "Ġimmunost": 1867,
      "95": 1868,
      "Ġtechn": 1869,
      "Ġher": 1870,
      "related": 1871,
      "Ġ18": 1872,
      "Ġcervical": 1873,
      "Ġsitu": 1874,
      "Ġpe": 1875,
      "Ġpathology": 1876,
      "equate": 1877,
      "Ġsin": 1878,
      "Ġlit": 1879,
      "ended": 1880,
      "optic": 1881,
      "idne": 1882,
      "ximately": 1883,
      "%.": 1884,
      "Ġpapillary": 1885,
      "Ġarter": 1886,
      "Ġcytoplasm": 1887,
      "ateg": 1888,
      "ons": 1889,
      "Ġvar": 1890,
      "Ġapoptosis": 1891,
      "Ġgeneral": 1892,
      "Ġile": 1893,
      "Ġdeveloped": 1894,
      "Ġretrosp": 1895,
      "Ġinvestigated": 1896,
      "Ġins": 1897,
      "Ġrecom": 1898,
      "Ġpopulation": 1899,
      "ects": 1900,
      "ronch": 1901,
      "Ġkidne": 1902,
      "Ġcrit": 1903,
      "vel": 1904,
      "Ġult": 1905,
      "Ġdid": 1906,
      "Ġrepresent": 1907,
      "ft": 1908,
      "ensity": 1909,
      "attered": 1910,
      "Ġconsidered": 1911,
      "nces": 1912,
      "Ġsynoptic": 1913,
      "cul": 1914,
      "omer": 1915,
      "Ġcompar": 1916,
      "ras": 1917,
      "Ġreaction": 1918,
      "oscopic": 1919,
      "over": 1920,
      "ice": 1921,
      "17": 1922,
      "lex": 1923,
      "Ġscattered": 1924,
      "cess": 1925,
      "Ġ16": 1926,
      "ful": 1927,
      "Ġendocerv": 1928,
      "Ġassociation": 1929,
      "Ġjunct": 1930,
      "Ġpurp": 1931,
      "Ġche": 1932,
      "ocyte": 1933,
      "Ġfinal": 1934,
      "iable": 1935,
      "Ġenh": 1936,
      "Ġpul": 1937,
      "ogenic": 1938,
      "ren": 1939,
      "Ġleuk": 1940,
      "Ġflu": 1941,
      "Ġbase": 1942,
      "Ġagain": 1943,
      "Ġfree": 1944,
      "ca": 1945,
      "Ġol": 1946,
      "Ġfew": 1947,
      "beta": 1948,
      "Ġnevus": 1949,
      ".-": 1950,
      "ants": 1951,
      "andard": 1952,
      "ise": 1953,
      "positive": 1954,
      "ually": 1955,
      "Ġline": 1956,
      "Ġarea": 1957,
      "Ġax": 1958,
      "Ġposterior": 1959,
      "Ġdermal": 1960,
      "light": 1961,
      "Ġed": 1962,
      "Ġlines": 1963,
      "Ġperiod": 1964,
      "ired": 1965,
      "ause": 1966,
      "ily": 1967,
      "me": 1968,
      "Ġinfiltrate": 1969,
      "Ġ40": 1970,
      "Ġpathological": 1971,
      "osph": 1972,
      "Ġvalue": 1973,
      "gl": 1974,
      "leason": 1975,
      "Ġrelated": 1976,
      "Ġcharacteristics": 1977,
      "Ġanterior": 1978,
      "Ġplacent": 1979,
      "Ġpurpose": 1980,
      "Ġincidence": 1981,
      "ature": 1982,
      "iment": 1983,
      "Ġsum": 1984,
      "Ġcorrelated": 1985,
      "Ġnuclei": 1986,
      "come": 1987,
      "Ġassessed": 1988,
      "Ġapproximately": 1989,
      "Ġdetermined": 1990,
      "Ġcir": 1991,
      "Ġestabl": 1992,
      "Ġwall": 1993,
      "alpha": 1994,
      "Ġpt": 1995,
      "Ġopt": 1996,
      "Ġseveral": 1997,
      "Ġgleason": 1998,
      "Ġsections": 1999,
      "Ġdetermine": 2000,
      "21": 2001,
      "Ġve": 2002,
      "oral": 2003,
      "ivo": 2004,
      "Ġcomponent": 2005,
      "Ġhealth": 2006,
      "henot": 2007,
      "Ġadequate": 2008,
      "Ġrecognized": 2009,
      "Ġsynd": 2010,
      "Ġcount": 2011,
      "igm": 2012,
      "Ġscar": 2013,
      "Ġvery": 2014,
      "inv": 2015,
      "ulc": 2016,
      "ital": 2017,
      "Ġagainst": 2018,
      "Ġexpressed": 2019,
      "Ġdam": 2020,
      "Ġclear": 2021,
      "Ġaggreg": 2022,
      "Ġhepatic": 2023,
      "situ": 2024,
      "Ġprod": 2025,
      "Ġsubm": 2026,
      "25": 2027,
      "emia": 2028,
      "Ġsensitivity": 2029,
      "Ġmany": 2030,
      ")-": 2031,
      "Ġet": 2032,
      "rum": 2033,
      "Ġsumm": 2034,
      "Ġindependent": 2035,
      "Ġdiss": 2036,
      "ixed": 2037,
      "ty": 2038,
      "Ġflow": 2039,
      "Ġarch": 2040,
      "omatous": 2041,
      "Ġsurface": 2042,
      "Ġ100": 2043,
      "Ġpromot": 2044,
      "monary": 2045,
      "Ġvivo": 2046,
      "Ġidentify": 2047,
      "30": 2048,
      "ulin": 2049,
      "Ġhighlight": 2050,
      "Ġstron": 2051,
      "Ġbr": 2052,
      "Ġduodenal": 2053,
      "line": 2054,
      "Ġfunction": 2055,
      "Ġset": 2056,
      "Ġhistory": 2057,
      "Ġbecause": 2058,
      "Ġoften": 2059,
      "Ġang": 2060,
      "Ġ24": 2061,
      "Ġtra": 2062,
      "Ġresidual": 2063,
      "Ġparamet": 2064,
      "Ġsusp": 2065,
      "sh": 2066,
      "Ġreveals": 2067,
      "ness": 2068,
      "Ġ.": 2069,
      "nscc": 2070,
      "cellular": 2071,
      "Ġterm": 2072,
      "Ġrecomm": 2073,
      "Ġabsent": 2074,
      "Ġoutcome": 2075,
      "Ġ25": 2076,
      "ria": 2077,
      "Ġprof": 2078,
      "ither": 2079,
      "Ġsymptom": 2080,
      "Ġindex": 2081,
      "Ġlobe": 2082,
      "eth": 2083,
      "Ġinvolving": 2084,
      "Ġwomen": 2085,
      "omic": 2086,
      "ibility": 2087,
      "olar": 2088,
      "Ġdermat": 2089,
      "Ġcondit": 2090,
      "34": 2091,
      "Ġ17": 2092,
      "ans": 2093,
      "Ġkeratin": 2094,
      "Ġconcent": 2095,
      "Ġonc": 2096,
      "Ġnodular": 2097,
      "Ġrates": 2098,
      "Ġpromin": 2099,
      "Ġmutation": 2100,
      "sm": 2101,
      "Ġimmune": 2102,
      "Ġrad": 2103,
      "ha": 2104,
      "Ġulc": 2105,
      "uvant": 2106,
      "Ġproteins": 2107,
      "Ġtranscript": 2108,
      "Ġmanag": 2109,
      "Ġvitro": 2110,
      "sc": 2111,
      "Ġkidney": 2112,
      "Ġbil": 2113,
      "Ġstrong": 2114,
      "uted": 2115,
      "Ġconc": 2116,
      "Ġendometrial": 2117,
      "arkable": 2118,
      "Ġprominent": 2119,
      "Ġquant": 2120,
      "Ġaccord": 2121,
      "nf": 2122,
      "Ġsuggestive": 2123,
      "Ġ\"": 2124,
      "ivari": 2125,
      "Ġcolitis": 2126,
      "Ġorig": 2127,
      "oxid": 2128,
      "Ġlead": 2129,
      "Ġprocedure": 2130,
      "Ġsequ": 2131,
      "Ġgenetic": 2132,
      "Ġoccas": 2133,
      "Ġstandard": 2134,
      "rop": 2135,
      "Ġcompound": 2136,
      "ivariate": 2137,
      "Ġwhereas": 2138,
      "Ġinvestigate": 2139,
      "inct": 2140,
      "Ġbladder": 2141,
      "Ġpoorly": 2142,
      "igmoid": 2143,
      "red": 2144,
      "Ġtumours": 2145,
      "Ġstruct": 2146,
      "Ġweight": 2147,
      "Ġknown": 2148,
      "Ġprecurs": 2149,
      "Ġsix": 2150,
      "ength": 2151,
      "Ġdeath": 2152,
      "Ġgi": 2153,
      "Ġformation": 2154,
      "Ġuter": 2155,
      "Ġexpos": 2156,
      "Ġcombination": 2157,
      "Ġegfr": 2158,
      "Ġseg": 2159,
      "40": 2160,
      "Ġdefin": 2161,
      "Ġadd": 2162,
      "izing": 2163,
      "Ġstatist": 2164,
      "angi": 2165,
      "Ġobtained": 2166,
      "Ġoccasional": 2167,
      "Ġfig": 2168,
      "Ġdiffuse": 2169,
      "Ġperine": 2170,
      "Ġcult": 2171,
      "iel": 2172,
      "erature": 2173,
      "Ġavail": 2174,
      "Ġpathway": 2175,
      "Ġfollowed": 2176,
      "Ġundifferentiated": 2177,
      "lying": 2178,
      "Ġalter": 2179,
      "Ġaccording": 2180,
      "Ġpig": 2181,
      "Ġcytok": 2182,
      "vir": 2183,
      "Ġfive": 2184,
      "cyt": 2185,
      "Ġstromal": 2186,
      "Ġcur": 2187,
      "Ġmature": 2188,
      "Ġglomer": 2189,
      "ii": 2190,
      "Ġanimals": 2191,
      "Ġpulmonary": 2192,
      "Ġvarious": 2193,
      "fs": 2194,
      "comes": 2195,
      "Ġsyndrome": 2196,
      "Ġsof": 2197,
      "Ġscler": 2198,
      "orectal": 2199,
      "Ġcharacterized": 2200,
      "tt": 2201,
      "Ġoutcomes": 2202,
      "Ġnovel": 2203,
      "Ġprob": 2204,
      "erex": 2205,
      "Ġdetection": 2206,
      "Ġabd": 2207,
      "urac": 2208,
      "ater": 2209,
      "itect": 2210,
      "Ġcomplic": 2211,
      "free": 2212,
      "Ġtherefore": 2213,
      "Ġappend": 2214,
      "Ġsoft": 2215,
      "eratin": 2216,
      "Ġvis": 2217,
      "Ġpredominant": 2218,
      "rich": 2219,
      "Ġexhibit": 2220,
      "cd": 2221,
      "23": 2222,
      "Ġwhether": 2223,
      "Ġradiation": 2224,
      "Ġblock": 2225,
      "Ġbiom": 2226,
      "Ġdamage": 2227,
      "Ġdifferences": 2228,
      "Ġlength": 2229,
      "45": 2230,
      "Ġdeg": 2231,
      "icient": 2232,
      "arch": 2233,
      "Ġpolym": 2234,
      "Ġinked": 2235,
      "rod": 2236,
      "Ġabout": 2237,
      "Ġthick": 2238,
      "rogen": 2239,
      "abol": 2240,
      "esoph": 2241,
      "Ġparameters": 2242,
      "erve": 2243,
      "based": 2244,
      "ellular": 2245,
      "Ġfemale": 2246,
      "Ġtechniqu": 2247,
      "Ġelev": 2248,
      "iate": 2249,
      "Ġhyperplastic": 2250,
      "Ġeosinophils": 2251,
      "Ġki": 2252,
      "Ġoccur": 2253,
      "remarkable": 2254,
      "Ġavailable": 2255,
      "itone": 2256,
      "Ġkeratosis": 2257,
      "Ġfocus": 2258,
      "Ġstem": 2259,
      "set": 2260,
      "Ġunremarkable": 2261,
      "Ġarchitect": 2262,
      "Ġdown": 2263,
      "Ġclassification": 2264,
      "27": 2265,
      "Ġsupp": 2266,
      "Ġpossible": 2267,
      "Ġmanagement": 2268,
      "Ġmrna": 2269,
      "Ġlimited": 2270,
      "Ġexposure": 2271,
      "Ġconsult": 2272,
      "Ġ#": 2273,
      "Ġblasts": 2274,
      "Ġregion": 2275,
      "odies": 2276,
      "Ġvas": 2277,
      "Ġneutrophils": 2278,
      "Ġdistinct": 2279,
      "Ġforms": 2280,
      "erately": 2281,
      "och": 2282,
      "otox": 2283,
      "ade": 2284,
      "Ġcycl": 2285,
      "Ġthus": 2286,
      "arian": 2287,
      "Ġfollicular": 2288,
      "63": 2289,
      "Ġcytomet": 2290,
      "Ġtoxicity": 2291,
      "Ġsummary": 2292,
      "ocrine": 2293,
      "Ġoverex": 2294,
      "Ġcontrast": 2295,
      "Ġsignaling": 2296,
      "ividual": 2297,
      "Ġexpl": 2298,
      "Ġdegen": 2299,
      "Ġcardi": 2300,
      "Ġpas": 2301,
      "Ġduodenum": 2302,
      "Ġfoci": 2303,
      "Ġchol": 2304,
      "Ġmeg": 2305,
      "eg": 2306,
      "ring": 2307,
      "Ġepidermal": 2308,
      "Ġindividual": 2309,
      "Ġpropria": 2310,
      "Ġliterature": 2311,
      "Ġassay": 2312,
      "Ġradiotherapy": 2313,
      "Ġextract": 2314,
      "ci": 2315,
      "Ġcort": 2316,
      "ives": 2317,
      "Ġpare": 2318,
      "Ġgreater": 2319,
      "Ġadministration": 2320,
      "ake": 2321,
      ");": 2322,
      "Ġemb": 2323,
      "Ġrectum": 2324,
      "Ġvalu": 2325,
      "Ġrele": 2326,
      "erg": 2327,
      "eat": 2328,
      "Ġdesign": 2329,
      "akary": 2330,
      "allop": 2331,
      "90": 2332,
      "Ġtom": 2333,
      "Ġcause": 2334,
      "Ġperineural": 2335,
      "ety": 2336,
      "Ġmorphology": 2337,
      "Ġoccurre": 2338,
      "Ġaspirate": 2339,
      "Ġeither": 2340,
      "Ġclinically": 2341,
      "Ġdepos": 2342,
      "ae": 2343,
      "Ġelect": 2344,
      "Ġmetabol": 2345,
      "Ġfat": 2346,
      "Ġcoh": 2347,
      "Ġmacroph": 2348,
      "uss": 2349,
      "vers": 2350,
      "Ġdep": 2351,
      "Ġpreviously": 2352,
      "Ġbiomark": 2353,
      "go": 2354,
      "Ġadult": 2355,
      "Ġmedical": 2356,
      "Ġcellularity": 2357,
      "sequent": 2358,
      "Ġday": 2359,
      "Ġtract": 2360,
      "Ġcohort": 2361,
      "Ġmedial": 2362,
      "Ġclinicopath": 2363,
      "Ġdescribed": 2364,
      "Ġbetter": 2365,
      "uce": 2366,
      "sa": 2367,
      "nas": 2368,
      "eful": 2369,
      "Ġoscc": 2370,
      "Ġescc": 2371,
      "Ġlik": 2372,
      "Ġrecommended": 2373,
      "Ġangi": 2374,
      "erated": 2375,
      "ability": 2376,
      "romb": 2377,
      "Ġsegment": 2378,
      "az": 2379,
      "Ġextra": 2380,
      "Ġantral": 2381,
      "Ġbefore": 2382,
      "ised": 2383,
      "Ġmegakary": 2384,
      "cm": 2385,
      "ets": 2386,
      "ximal": 2387,
      "Ġstudied": 2388,
      "clc": 2389,
      "Ġactin": 2390,
      "Ġcontrols": 2391,
      "umor": 2392,
      "Ġextensive": 2393,
      "Ġuseful": 2394,
      "Ġbcl": 2395,
      "Ġmoderately": 2396,
      "Ġshown": 2397,
      "Ġactivation": 2398,
      "cence": 2399,
      "Ġleast": 2400,
      "Ġcombined": 2401,
      "+)": 2402,
      "rib": 2403,
      "asing": 2404,
      "Ġcolorectal": 2405,
      "Ġheter": 2406,
      "Ġrand": 2407,
      "Ġregul": 2408,
      "Ġrandom": 2409,
      "Ġhighly": 2410,
      "Ġsection": 2411,
      "22": 2412,
      "Ġexperiment": 2413,
      "Ġplacenta": 2414,
      "Ġphosph": 2415,
      "Ġbel": 2416,
      "Ġshe": 2417,
      "Ġver": 2418,
      "cending": 2419,
      "Ġsigmoid": 2420,
      "Ġ60": 2421,
      "Ġcutaneous": 2422,
      "Ġbronch": 2423,
      "Ġmight": 2424,
      "Ġorganisms": 2425,
      "Ġlabor": 2426,
      "Ġnerve": 2427,
      "Ġcomplex": 2428,
      "Ġrout": 2429,
      "erous": 2430,
      "Ġeffective": 2431,
      "Ġlent": 2432,
      "Ġkin": 2433,
      "Ġcriter": 2434,
      "Ġregard": 2435,
      "zym": 2436,
      "Ġcytometry": 2437,
      "brid": 2438,
      "more": 2439,
      "acy": 2440,
      "olum": 2441,
      "Ġisol": 2442,
      "Ġneoplasia": 2443,
      "Ġtomography": 2444,
      "Ġneur": 2445,
      "Ġiron": 2446,
      "Ġfore": 2447,
      "Ġdirect": 2448,
      "ociated": 2449,
      "othelial": 2450,
      "Ġlight": 2451,
      "Ġos": 2452,
      "Ġparticular": 2453,
      "Ġinform": 2454,
      "Ġsymptoms": 2455,
      "Ġindicated": 2456,
      "rot": 2457,
      "Ġlamin": 2458,
      "Ġapproach": 2459,
      "Ġlobular": 2460,
      "Ġmechanisms": 2461,
      "Ġdifference": 2462,
      "orrh": 2463,
      "Ġhnscc": 2464,
      "associated": 2465,
      "Ġanalyses": 2466,
      "not": 2467,
      "pd": 2468,
      "Ġmegakaryocytes": 2469,
      "Ġatroph": 2470,
      "ml": 2471,
      "Ġck": 2472,
      "ists": 2473,
      "iev": 2474,
      "erence": 2475,
      "term": 2476,
      "nchym": 2477,
      "regulated": 2478,
      "Ġfurthermore": 2479,
      "hy": 2480,
      "agen": 2481,
      "Ġprovide": 2482,
      "treated": 2483,
      "Ġsubj": 2484,
      "Ġpostoperative": 2485,
      "Ġorigin": 2486,
      "ield": 2487,
      "Ġcystic": 2488,
      "Ġthromb": 2489,
      "Ġregression": 2490,
      "Ġspect": 2491,
      "ole": 2492,
      "Ġinclude": 2493,
      "esophageal": 2494,
      "inary": 2495,
      "Ġeffic": 2496,
      "ross": 2497,
      "Ġpain": 2498,
      "Ġdysplastic": 2499,
      "Ġmri": 2500,
      "read": 2501,
      "Ġminimal": 2502,
      "Ġ21": 2503,
      "uff": 2504,
      "Ġovarian": 2505,
      "%;": 2506,
      "Ġestablished": 2507,
      "Ġpdac": 2508,
      "Ġtyp": 2509,
      "Ġfocally": 2510,
      "ount": 2511,
      "ouse": 2512,
      "atively": 2513,
      "Ġdiseases": 2514,
      "Ġnoted": 2515,
      "Ġvill": 2516,
      "Ġfam": 2517,
      "Ġmarker": 2518,
      "Ġcure": 2519,
      "Ġcentral": 2520,
      "opathy": 2521,
      "Ġrespons": 2522,
      "Ġprecursors": 2523,
      "ense": 2524,
      "Ġdetect": 2525,
      "Ġmodels": 2526,
      "Ġbeta": 2527,
      "kn": 2528,
      "mm": 2529,
      "Ġlentig": 2530,
      "elv": 2531,
      "Ġbar": 2532,
      "Ġfollic": 2533,
      "Ġpet": 2534,
      "Ġcaused": 2535,
      "eric": 2536,
      "Ġchange": 2537,
      "oscopy": 2538,
      "Ġglands": 2539,
      "Ġcriteria": 2540,
      "Ġnodules": 2541,
      "Ġinstit": 2542,
      "Ġresist": 2543,
      "Ġfail": 2544,
      "Ġlack": 2545,
      "Ġpathologic": 2546,
      "Ġmortal": 2547,
      "Ġparenchym": 2548,
      "Ġtrial": 2549,
      "Ġportal": 2550,
      "Ġusually": 2551,
      "arm": 2552,
      "Ġphase": 2553,
      "Ġchild": 2554,
      "bor": 2555,
      "Ġaccurac": 2556,
      "orb": 2557,
      "geal": 2558,
      "Ġvia": 2559,
      "illary": 2560,
      "Ġtransverse": 2561,
      "Ġphenot": 2562,
      "Ġscre": 2563,
      "Ġproximal": 2564,
      "ust": 2565,
      "Ġspecificity": 2566,
      "athyroid": 2567,
      "Ġcytokeratin": 2568,
      "Ġlaboratory": 2569,
      "opo": 2570,
      "Ġretrospective": 2571,
      "24": 2572,
      "Ġtransplant": 2573,
      "Ġsubsequent": 2574,
      "Ġur": 2575,
      "Ġunderst": 2576,
      "Ġdiscuss": 2577,
      "itted": 2578,
      "Ġmeasured": 2579,
      "Ġpresentation": 2580,
      "itoneal": 2581,
      "Ġaccuracy": 2582,
      "Ġdiv": 2583,
      "Ġmortality": 2584,
      "Ġefficacy": 2585,
      "aryngeal": 2586,
      "oad": 2587,
      "itative": 2588,
      "Ġrecurrent": 2589,
      "iform": 2590,
      "Ġtransform": 2591,
      "Ġhybrid": 2592,
      "Ġcontrib": 2593,
      "Ġcap": 2594,
      "Ġfragment": 2595,
      "Ġmicroscopic": 2596,
      "asal": 2597,
      "Ġpigment": 2598,
      "Ġvirus": 2599,
      "Ġdistrib": 2600,
      "âĢĵ": 2601,
      "Ġcat": 2602,
      "Ġimproved": 2603,
      "Ġprevent": 2604,
      "Ġinfiltration": 2605,
      "Ġiv": 2606,
      "Ġremains": 2607,
      "po": 2608,
      "allopian": 2609,
      "Ġantigen": 2610,
      "Ġalpha": 2611,
      "ove": 2612,
      "Ġfallopian": 2613,
      "Ġthir": 2614,
      "Ġgiven": 2615,
      "Ġmagn": 2616,
      "Ġatt": 2617,
      "ylation": 2618,
      "rit": 2619,
      "Ġvers": 2620,
      "Ġmacrophages": 2621,
      "Ġalone": 2622,
      "hip": 2623,
      "ominal": 2624,
      "Ġcenter": 2625,
      "ements": 2626,
      "Ġ28": 2627,
      "ographic": 2628,
      "33": 2629,
      ".).": 2630,
      "orescence": 2631,
      "Ġvalues": 2632,
      "ored": 2633,
      "hr": 2634,
      "Ġsame": 2635,
      "osom": 2636,
      "Ġlikely": 2637,
      "Ġfunctional": 2638,
      "lyc": 2639,
      "Ġlay": 2640,
      "Ġinterstit": 2641,
      "pec": 2642,
      "yel": 2643,
      "Ġmouse": 2644,
      "Ġunderlying": 2645,
      "side": 2646,
      "ioma": 2647,
      "Ġpa": 2648,
      "Ġmembrane": 2649,
      "Ġpers": 2650,
      "Ġneoplasms": 2651,
      "Ġchain": 2652,
      "Ġstaging": 2653,
      "Ġke": 2654,
      "orad": 2655,
      "Ġregional": 2656,
      "Ġinhibition": 2657,
      "Ġaggressive": 2658,
      "platin": 2659,
      "Ġoxid": 2660,
      "ality": 2661,
      "Ġvessels": 2662,
      "Ġendoscopic": 2663,
      "Ġcervix": 2664,
      "Ġcytologic": 2665,
      "29": 2666,
      "Ġsystemic": 2667,
      "Ġpreoperative": 2668,
      ".,": 2669,
      "omp": 2670,
      "Ġmc": 2671,
      "Ġslight": 2672,
      "Ġapex": 2673,
      "omorph": 2674,
      "ocellular": 2675,
      "Ġalterations": 2676,
      "lu": 2677,
      "Ġantrum": 2678,
      "Ġfibrous": 2679,
      "dependent": 2680,
      "regular": 2681,
      "Ġiii": 2682,
      "Ġns": 2683,
      "Ġadjacent": 2684,
      "Ġsolid": 2685,
      "Ġfrequently": 2686,
      "Ġexclud": 2687,
      "26": 2688,
      "path": 2689,
      "Ġroutine": 2690,
      "Ġassessment": 2691,
      "Ġmechanism": 2692,
      "Ġmen": 2693,
      "Ġendocervical": 2694,
      "Ġmultivariate": 2695,
      "Ġirregular": 2696,
      "arcinomas": 2697,
      "Ġdissection": 2698,
      "Ġglomerul": 2699,
      "Ġhemorrh": 2700,
      "osarcoma": 2701,
      "Ġpelv": 2702,
      "Ġdemonstrate": 2703,
      "Ġglob": 2704,
      "Ġgerm": 2705,
      "Ġconduct": 2706,
      "Ġcox": 2707,
      "Ġneph": 2708,
      "resp": 2709,
      "aken": 2710,
      "Ġenzym": 2711,
      "Ġenc": 2712,
      "ld": 2713,
      "Ġsignificance": 2714,
      "Ġgrad": 2715,
      "Ġstrateg": 2716,
      "49": 2717,
      "Ġsubt": 2718,
      "Ġexperimental": 2719,
      "Ġdiffic": 2720,
      "ator": 2721,
      "immun": 2722,
      "Ġinterval": 2723,
      "order": 2724,
      "Ġpredictive": 2725,
      "Ġinitial": 2726,
      "ner": 2727,
      "Ġsk": 2728,
      "Ġlin": 2729,
      "Ġsw": 2730,
      "Ġbeing": 2731,
      "Ġelevated": 2732,
      "ier": 2733,
      "til": 2734,
      "Ġthen": 2735,
      "Ġrelations": 2736,
      "Ġpatterns": 2737,
      "Ġradical": 2738,
      "Ġnodule": 2739,
      "Ġgranulomas": 2740,
      "ogl": 2741,
      "Ġincreasing": 2742,
      "pecially": 2743,
      "Ġsuggested": 2744,
      "Ġcollagen": 2745,
      "oli": 2746,
      "Ġimages": 2747,
      "Ġmig": 2748,
      "ema": 2749,
      "chem": 2750,
      "Ġneoplastic": 2751,
      "ochemical": 2752,
      "pcr": 2753,
      "Ġhealing": 2754,
      "ovascular": 2755,
      "Ġlarg": 2756,
      "Ġsaf": 2757,
      "Ġyo": 2758,
      "28": 2759,
      "Ġstress": 2760,
      "Ġcannot": 2761,
      "38": 2762,
      "ifications": 2763,
      "Ġdifficult": 2764,
      "Ġcis": 2765,
      "Ġinformation": 2766,
      "/=": 2767,
      "Ġsmok": 2768,
      "Ġpredominantly": 2769,
      "Ġrelationship": 2770,
      "Ġrest": 2771,
      "endocrine": 2772,
      "Ġchor": 2773,
      "Ġgross": 2774,
      "Ġgu": 2775,
      "uster": 2776,
      "Ġnumerous": 2777,
      "Ġref": 2778,
      "Ġmoreover": 2779,
      "Ġkinase": 2780,
      "Ġhistology": 2781,
      "encing": 2782,
      "Ġach": 2783,
      "cin": 2784,
      "Ġcluster": 2785,
      "Ġtrich": 2786,
      "Ġadenocarcinomas": 2787,
      "Ġalong": 2788,
      "Ġsarcoma": 2789,
      "Ġinterp": 2790,
      "invas": 2791,
      "Ġespecially": 2792,
      "Ġsites": 2793,
      "roup": 2794,
      "Ġoverexpression": 2795,
      "Ġarchitecture": 2796,
      "ventional": 2797,
      "Ġvalid": 2798,
      "ttage": 2799,
      "Ġmicroscopy": 2800,
      "Ġbenef": 2801,
      "amine": 2802,
      "ipose": 2803,
      "rations": 2804,
      "44": 2805,
      "Ġu": 2806,
      "oblast": 2807,
      "Ġsteat": 2808,
      "Ġcurettage": 2809,
      "appa": 2810,
      "Ġvolum": 2811,
      "osal": 2812,
      "Ġsecondary": 2813,
      "rest": 2814,
      "68": 2815,
      "group": 2816,
      "Ġlamina": 2817,
      "Ġsuperior": 2818,
      "iology": 2819,
      "Ġside": 2820,
      "ission": 2821,
      "Ġabove": 2822,
      "Ġrna": 2823,
      "Ġappearance": 2824,
      "35": 2825,
      "Ġmeasure": 2826,
      "Ġpun": 2827,
      "Ġvac": 2828,
      "Ġoutside": 2829,
      "Ġhypert": 2830,
      "Ġhisti": 2831,
      "Ġadjuvant": 2832,
      "iac": 2833,
      "60": 2834,
      "Ġsepar": 2835,
      "Ġpreval": 2836,
      "Ġcec": 2837,
      "Ġimpact": 2838,
      "Ġselected": 2839,
      "Ġsubc": 2840,
      "ins": 2841,
      "Ġversus": 2842,
      "Ġaimed": 2843,
      "plication": 2844,
      "Ġdoes": 2845,
      "Ġdiab": 2846,
      "Ġlentiginous": 2847,
      "Ġpercentage": 2848,
      "Ġhelp": 2849,
      "Ġsex": 2850,
      "rant": 2851,
      "Ġcysts": 2852,
      "Ġseries": 2853,
      "Ġtesting": 2854,
      "Ġtem": 2855,
      "Ġsent": 2856,
      "Ġcomparis": 2857,
      "Ġstatistically": 2858,
      "Ġder": 2859,
      "Ġfung": 2860,
      "pv": 2861,
      "infl": 2862,
      "Ġcomposed": 2863,
      "Ġconducted": 2864,
      "Ġscant": 2865,
      "Ġlam": 2866,
      "Ġabdominal": 2867,
      "Ġaggregates": 2868,
      "Ġpunch": 2869,
      "pid": 2870,
      "Ġchall": 2871,
      "Ġ90": 2872,
      "Ġ22": 2873,
      "obacter": 2874,
      "Ġrefer": 2875,
      "Ġsetting": 2876,
      "Ġbilateral": 2877,
      "Ġhybridization": 2878,
      "ray": 2879,
      "Ġauto": 2880,
      "Ġneuroendocrine": 2881,
      "Ġinterstitial": 2882,
      "Ġcoun": 2883,
      "Ġhyd": 2884,
      "Ġmucosal": 2885,
      "eding": 2886,
      "Ġgiant": 2887,
      "Ġrecord": 2888,
      "ether": 2889,
      "rt": 2890,
      "000": 2891,
      "Ġyoung": 2892,
      "Ġinhibitor": 2893,
      "active": 2894,
      "Ġremov": 2895,
      "Ġpan": 2896,
      "Ġhematopo": 2897,
      "Ġhighlights": 2898,
      "Ġpub": 2899,
      "Ġ35": 2900,
      "Ġlymphocytic": 2901,
      "iary": 2902,
      "Ġindicate": 2903,
      "Ġinflu": 2904,
      "Ġproliferative": 2905,
      "Ġchest": 2906,
      "Ġeight": 2907,
      "ances": 2908,
      "Ġdensity": 2909,
      "Ġfetal": 2910,
      "ably": 2911,
      "ytic": 2912,
      "Ġcav": 2913,
      "inflamm": 2914,
      "Ġabsence": 2915,
      "Ġcomplications": 2916,
      "Ġfav": 2917,
      "Ġtube": 2918,
      "Ġfrequ": 2919,
      "Ġphys": 2920,
      "range": 2921,
      "Ġgall": 2922,
      "Ġproport": 2923,
      "Ġentire": 2924,
      "dg": 2925,
      "Ġcontain": 2926,
      "Ġeven": 2927,
      "Ġinclus": 2928,
      "Ġ199": 2929,
      "Ġextent": 2930,
      "Ġconventional": 2931,
      "Ġ23": 2932,
      "Ġfract": 2933,
      "70": 2934,
      "Ġspind": 2935,
      "Ġfibroc": 2936,
      "Ġendothelial": 2937,
      "Ġachiev": 2938,
      "Ġglut": 2939,
      "Ġigg": 2940,
      "seud": 2941,
      "Ġestim": 2942,
      "regulation": 2943,
      "Ġabund": 2944,
      "veolar": 2945,
      "olved": 2946,
      "Ġslides": 2947,
      "differentiated": 2948,
      "Ġuro": 2949,
      "Ġure": 2950,
      "Ġ80": 2951,
      "Ġpathways": 2952,
      "jection": 2953,
      "erior": 2954,
      "Ġprosp": 2955,
      "Ġmamm": 2956,
      "Ġneedle": 2957,
      "(-": 2958,
      "Ġextension": 2959,
      "Ġsinus": 2960,
      "Ġmucinous": 2961,
      "Ġantibody": 2962,
      "rated": 2963,
      "ionic": 2964,
      "ext": 2965,
      "Ġsuccess": 2966,
      "havi": 2967,
      "nm": 2968,
      "Ġbacter": 2969,
      "man": 2970,
      "neum": 2971,
      "Ġcare": 2972,
      "Ġlocation": 2973,
      "Ġadhes": 2974,
      "ura": 2975,
      "onic": 2976,
      "hc": 2977,
      "Ġreduction": 2978,
      "thritis": 2979,
      "enous": 2980,
      "31": 2981,
      "Ġrese": 2982,
      "Ġpartial": 2983,
      "alp": 2984,
      "Ġrefl": 2985,
      "Ġcollected": 2986,
      "Ġmorphological": 2987,
      "Ġdistribution": 2988,
      "Ġeb": 2989,
      "Ġdecrease": 2990,
      "Ġneeded": 2991,
      "Ġmixed": 2992,
      "Ġrange": 2993,
      "amma": 2994,
      "Ġjunctional": 2995,
      "Ġrequired": 2996,
      "Ġaffected": 2997,
      "bb": 2998,
      "Ġconfirm": 2999,
      "Ġresistance": 3000,
      "olecyst": 3001,
      "itary": 3002,
      "Ġcommonly": 3003,
      "Ġpcr": 3004,
      "Ġbehavi": 3005,
      "intestinal": 3006,
      "inu": 3007,
      "Ġ70": 3008,
      "ork": 3009,
      "Ġnecess": 3010,
      "Ġovary": 3011,
      "ester": 3012,
      "Ġ26": 3013,
      "Ġaddend": 3014,
      "80": 3015,
      "negative": 3016,
      "upt": 3017,
      "Ġsarc": 3018,
      "Ġaddendum": 3019,
      "Ġbile": 3020,
      "Ġzone": 3021,
      "known": 3022,
      "rett": 3023,
      "Ġjunction": 3024,
      "Ġcholecyst": 3025,
      "Ġport": 3026,
      "Ġbiological": 3027,
      "rhe": 3028,
      "75": 3029,
      "Ġpseud": 3030,
      "Ġcisplatin": 3031,
      "Ġperformance": 3032,
      "Ġpelvic": 3033,
      "Ġmedi": 3034,
      "Ġcompr": 3035,
      "Ġmigration": 3036,
      "inflammatory": 3037,
      "ynt": 3038,
      "Ġbra": 3039,
      "Ġvariant": 3040,
      "ectives": 3041,
      "Ġimmunop": 3042,
      "cum": 3043,
      "Ġstill": 3044,
      "ystic": 3045,
      "Ġparenchyma": 3046,
      "Ġesophagitis": 3047,
      "wh": 3048,
      "Ġmast": 3049,
      "Ġlum": 3050,
      "zen": 3051,
      "ĠâĢ": 3052,
      "day": 3053,
      "Ġisolated": 3054,
      "bi": 3055,
      "ious": 3056,
      "Ġpancreas": 3057,
      "Ġtranscription": 3058,
      "Ġbow": 3059,
      "Ġmelanocytic": 3060,
      "+/-": 3061,
      "rocyt": 3062,
      "entric": 3063,
      "mal": 3064,
      "Ġproper": 3065,
      "Ġcomparison": 3066,
      "Ġactinic": 3067,
      "cad": 3068,
      "Ġstroma": 3069,
      "Ġoxidative": 3070,
      "Ġlif": 3071,
      "Ġast": 3072,
      "inel": 3073,
      "Ġkappa": 3074,
      "Ġbarrett": 3075,
      "estern": 3076,
      "rotein": 3077,
      "Ġparathyroid": 3078,
      "Ġhistologically": 3079,
      "ereb": 3080,
      "Ġhg": 3081,
      "Ġcecum": 3082,
      "Ġsurround": 3083,
      "Ġbelow": 3084,
      "Ġinteract": 3085,
      "Ġair": 3086,
      "aff": 3087,
      "Ġrh": 3088,
      "erase": 3089,
      "Ġvariab": 3090,
      "Ġleukemia": 3091,
      "Ġdefinitive": 3092,
      "pite": 3093,
      "asp": 3094,
      "Ġkey": 3095,
      "Ġileum": 3096,
      "Ġwork": 3097,
      "invasive": 3098,
      "ally": 3099,
      "Ġundergo": 3100,
      "Ġdescribe": 3101,
      "Ġrelev": 3102,
      "Ġlig": 3103,
      "Ġdespite": 3104,
      "rang": 3105,
      "ressing": 3106,
      "Ġoccurred": 3107,
      "pri": 3108,
      "Ġinhibited": 3109,
      "Ġstages": 3110,
      "Ġplay": 3111,
      "Ġaffect": 3112,
      "Ġnecro": 3113,
      "Ġtog": 3114,
      "ram": 3115,
      "Ġantioxid": 3116,
      "Ġ27": 3117,
      "ingu": 3118,
      "Ġunderstand": 3119,
      "ones": 3120,
      "Ġextrem": 3121,
      "Ġtogether": 3122,
      "viron": 3123,
      "Ġrecently": 3124,
      "Ġfibrin": 3125,
      "ient": 3126,
      "Ġgastritis": 3127,
      "ern": 3128,
      "Ġintrod": 3129,
      "Ġuterine": 3130,
      "Ġvul": 3131,
      "Ġchildren": 3132,
      "Ġcardiac": 3133,
      "pc": 3134,
      "Ġwestern": 3135,
      "Ġappropri": 3136,
      "Ġpoly": 3137,
      "Ġequ": 3138,
      "Ġgastrointestinal": 3139,
      "Ġadministered": 3140,
      "Ġrejection": 3141,
      "tumor": 3142,
      "Ġconditions": 3143,
      "(+)": 3144,
      "Ġnsclc": 3145,
      "Ġmajority": 3146,
      "Ġha": 3147,
      "to": 3148,
      "Ġaccum": 3149,
      "Ġcomputed": 3150,
      "iciency": 3151,
      "Ġobjectives": 3152,
      "Ġvolume": 3153,
      "ysis": 3154,
      "lation": 3155,
      "Ġresearch": 3156,
      "Ġnan": 3157,
      "Ġpneum": 3158,
      "Ġhealthy": 3159,
      "Ġinteg": 3160,
      "pr": 3161,
      "Ġrt": 3162,
      "Ġlabel": 3163,
      "Ġsuggesting": 3164,
      "Ġdivided": 3165,
      "enty": 3166,
      "Ġpatch": 3167,
      "Ġbiomarkers": 3168,
      "ervation": 3169,
      "Ġurot": 3170,
      "Ġsentinel": 3171,
      "Ġtechnique": 3172,
      "Ġtransformation": 3173,
      "Ġshort": 3174,
      "enchym": 3175,
      "uclear": 3176,
      "pe": 3177,
      "met": 3178,
      "Ġdefined": 3179,
      "radi": 3180,
      "Ġcateg": 3181,
      "Ġpathogenesis": 3182,
      "Ġischem": 3183,
      "roma": 3184,
      "Ġfac": 3185,
      "Ġimprove": 3186,
      "Ġrepair": 3187,
      "Ġheterogen": 3188,
      "Ġsem": 3189,
      "rozen": 3190,
      "bladder": 3191,
      "ucing": 3192,
      "Ġgastroesophageal": 3193,
      "Ġexperi": 3194,
      "Ġtrichrome": 3195,
      "Ġcontains": 3196,
      "ooth": 3197,
      "erest": 3198,
      "Ġenhanced": 3199,
      "Ġabundant": 3200,
      "Ġfrequency": 3201,
      "ertain": 3202,
      "Ġrectal": 3203,
      "Ġantibodies": 3204,
      "Ġresected": 3205,
      "ocytosis": 3206,
      "Ġdog": 3207,
      "Ġlap": 3208,
      "+,": 3209,
      "Ġcytotox": 3210,
      "mediate": 3211,
      "Ġampl": 3212,
      "Ġsil": 3213,
      "Ġso": 3214,
      "Ġgood": 3215,
      "Ġembry": 3216,
      "rad": 3217,
      "Ġresulted": 3218,
      "Ġstained": 3219,
      "rasound": 3220,
      "Ġreports": 3221,
      "trans": 3222,
      "dr": 3223,
      "Ġfamily": 3224,
      "Ġdistant": 3225,
      "Ġmade": 3226,
      "iomy": 3227,
      "Ġculture": 3228,
      "pa": 3229,
      "ga": 3230,
      "Ġpossibility": 3231,
      "Ġgallbladder": 3232,
      "herin": 3233,
      "Ġcross": 3234,
      "Ġimm": 3235,
      "Ġmanif": 3236,
      "Ġultrasound": 3237,
      "Ġcord": 3238,
      "gu": 3239,
      "Ġey": 3240,
      "Ġexhibited": 3241,
      "undic": 3242,
      "Ġhorm": 3243,
      "Ġshowing": 3244,
      "Ġmanifest": 3245,
      "vironment": 3246,
      "Ġtaken": 3247,
      "okin": 3248,
      "Ġbest": 3249,
      "Ġexcluded": 3250,
      "Ġconcentrations": 3251,
      "Ġps": 3252,
      "rix": 3253,
      "Ġarising": 3254,
      "Ġparticularly": 3255,
      "urn": 3256,
      "Ġlayer": 3257,
      "ivers": 3258,
      "Ġmagnetic": 3259,
      "iving": 3260,
      "Ġfrozen": 3261,
      "Ġwhere": 3262,
      "Ġwould": 3263,
      "inf": 3264,
      "Ġunknown": 3265,
      "Ġscreening": 3266,
      "mediated": 3267,
      "Ġtoxic": 3268,
      "Ġprofil": 3269,
      "Ġrapid": 3270,
      "Ġhyal": 3271,
      "Ġcereb": 3272,
      "Ġinduction": 3273,
      "Ġknow": 3274,
      "orders": 3275,
      "Ġthem": 3276,
      "treat": 3277,
      "Ġdispl": 3278,
      "Ġinjection": 3279,
      "Ġsample": 3280,
      "Ġmalignancies": 3281,
      "mb": 3282,
      "ites": 3283,
      "Ġfollows": 3284,
      "Ġclassified": 3285,
      "Ġgest": 3286,
      "ping": 3287,
      "respond": 3288,
      "orbid": 3289,
      "Ġslightly": 3290,
      "Ġlymphatic": 3291,
      "Ġpatholog": 3292,
      "Ġendocervix": 3293,
      "Ġfollicles": 3294,
      "risk": 3295,
      "Ġmitotic": 3296,
      "Ġtested": 3297,
      "Ġsubmitted": 3298,
      "99": 3299,
      "por": 3300,
      "Ġsecret": 3301,
      "Ġfailure": 3302,
      "Ġtests": 3303,
      "Ġenl": 3304,
      "Ġinstitution": 3305,
      "Ġadm": 3306,
      "Ġallow": 3307,
      "Ġdiamet": 3308,
      "Ġmildly": 3309,
      "Ġwbc": 3310,
      "Ġip": 3311,
      "tenu": 3312,
      "Ġlipid": 3313,
      "enchymal": 3314,
      "Ġcycle": 3315,
      "Ġprevalence": 3316,
      "Ġmedium": 3317,
      "Ġcomponents": 3318,
      "Ġ36": 3319,
      "Ġcontaining": 3320,
      "Ġsubmuc": 3321,
      "Ġappears": 3322,
      "ardi": 3323,
      "Ġappropriate": 3324,
      "apillary": 3325,
      "Ġreson": 3326,
      "Ġimplant": 3327,
      "Ġ45": 3328,
      "enced": 3329,
      "Ġinterpret": 3330,
      "co": 3331,
      "Ġabnormalities": 3332,
      "Ġsac": 3333,
      "Ġid": 3334,
      "Ġseven": 3335,
      "Ġglyc": 3336,
      "ocl": 3337,
      "Ġdistingu": 3338,
      "fusion": 3339,
      "Ġpeak": 3340,
      "Ġ29": 3341,
      "Ġproduction": 3342,
      "Ġstructures": 3343,
      "Ġround": 3344,
      "Ġspread": 3345,
      "Ġhistopathologically": 3346,
      "Ġelements": 3347,
      "Ġarm": 3348,
      "Ġresonance": 3349,
      "cal": 3350,
      "anth": 3351,
      "Ġsuggests": 3352,
      "Ġpn": 3353,
      "Ġbiochemical": 3354,
      "Ġcondition": 3355,
      "utive": 3356,
      "Ġenlarg": 3357,
      "Ġsuspected": 3358,
      "cadherin": 3359,
      "Ġultr": 3360,
      "oman": 3361,
      "Ġcour": 3362,
      "Ġgenot": 3363,
      "Ġconcentration": 3364,
      "04": 3365,
      "ck": 3366,
      "Ġphenotype": 3367,
      "iesis": 3368,
      "37": 3369,
      "Ġess": 3370,
      "Ġear": 3371,
      "Ġmethylation": 3372,
      "Ġlapar": 3373,
      "amic": 3374,
      "Ġviral": 3375,
      "Ġmarkedly": 3376,
      "Ġeosinophilic": 3377,
      "Ġdiet": 3378,
      "Ġnucleoli": 3379,
      "Ġdatab": 3380,
      "Ġstim": 3381,
      "ompan": 3382,
      "Ġdegeneration": 3383,
      "Ġdil": 3384,
      ".)": 3385,
      "65": 3386,
      "Ġmainly": 3387,
      "Ġpubl": 3388,
      "Ġspindle": 3389,
      "Ġaccompan": 3390,
      "Ġleiomy": 3391,
      "Ġretrospectively": 3392,
      "Ġaccur": 3393,
      "Ġpositivity": 3394,
      "Ġic": 3395,
      "osa": 3396,
      "cem": 3397,
      "artment": 3398,
      "urg": 3399,
      "Ġsmooth": 3400,
      "Ġdegree": 3401,
      "Ġcaps": 3402,
      "Ġsince": 3403,
      "Ġwoman": 3404,
      "uture": 3405,
      "Ġquantitative": 3406,
      "ypt": 3407,
      "Ġattenu": 3408,
      "Ġ33": 3409,
      "Ġmultif": 3410,
      "Ġbowel": 3411,
      "Ġpapilloma": 3412,
      "Ġagents": 3413,
      "treatment": 3414,
      "ofib": 3415,
      "Ġworld": 3416,
      "Ġaort": 3417,
      "ypic": 3418,
      "Ġlocated": 3419,
      "pat": 3420,
      "Ġblot": 3421,
      "¿½": 3422,
      "ï¿½": 3423,
      "Ġconsider": 3424,
      "Ġpersist": 3425,
      "Ġmuscular": 3426,
      "Ġhom": 3427,
      "Ġspecies": 3428,
      "Ġvillous": 3429,
      "Ġclinicopathological": 3430,
      "ogenetic": 3431,
      "Ġpap": 3432,
      "osing": 3433,
      "work": 3434,
      "ina": 3435,
      "Ġunus": 3436,
      "57": 3437,
      "Ġspl": 3438,
      "Ġresponses": 3439,
      "Ġbcc": 3440,
      "ward": 3441,
      "Ġcavity": 3442,
      "Ġpolymorph": 3443,
      "ledge": 3444,
      "Ġsch": 3445,
      "Ġmorphologic": 3446,
      "Ġposit": 3447,
      "Ġnecessary": 3448,
      "hest": 3449,
      "Ġascending": 3450,
      "gn": 3451,
      "ochond": 3452,
      "Ġknowledge": 3453,
      "plied": 3454,
      "Ġpleomorph": 3455,
      "Ġ31": 3456,
      "0001": 3457,
      "Ġ48": 3458,
      "Ġinhibitors": 3459,
      "cont": 3460,
      "Ġ38": 3461,
      "exp": 3462,
      "stage": 3463,
      "Ġpatchy": 3464,
      "unction": 3465,
      "Ġinterest": 3466,
      "Ġinferior": 3467,
      "Ġdiameter": 3468,
      "Ġalt": 3469,
      "Ġcourse": 3470,
      "Ġregions": 3471,
      "ayed": 3472,
      "eletal": 3473,
      "Ġupt": 3474,
      "Ġserous": 3475,
      "Ġrelatively": 3476,
      "Ġmening": 3477,
      "Ġmedic": 3478,
      "36": 3479,
      "Ġsuccessful": 3480,
      "Ġtool": 3481,
      "Ġability": 3482,
      "Ġspecial": 3483,
      "Ġlymphovascular": 3484,
      "Ġmt": 3485,
      "Ġenhance": 3486,
      "oring": 3487,
      "Ġessential": 3488,
      "iat": 3489,
      "Ġweak": 3490,
      "Ġincludes": 3491,
      "Ġconfidence": 3492,
      "Ġmembranes": 3493,
      "Ġurothelial": 3494,
      "Ġ37": 3495,
      "Ġchromatin": 3496,
      "Ġuptake": 3497,
      "fig": 3498,
      "Ġpolypoid": 3499,
      "Ġln": 3500,
      "other": 3501,
      "Ġonset": 3502,
      "Ġsigns": 3503,
      "epidermal": 3504,
      "ales": 3505,
      "Ġ34": 3506,
      "Ġantioxidant": 3507,
      "Ġcytology": 3508,
      "Ġcalcifications": 3509,
      "ences": 3510,
      "Ġsaliv": 3511,
      "Ġhelic": 3512,
      "Ġ%": 3513,
      "no": 3514,
      "Ġsteatosis": 3515,
      "Ġsubtype": 3516,
      "Ġrelative": 3517,
      "olic": 3518,
      "Ġartery": 3519,
      "Ġconcurrent": 3520,
      "Ġperiv": 3521,
      "Ġmatrix": 3522,
      "Ġsubtypes": 3523,
      "Ġgli": 3524,
      "con": 3525,
      "Ġthym": 3526,
      "iline": 3527,
      "Ġunusual": 3528,
      "ioid": 3529,
      "Ġconsec": 3530,
      "Ġalk": 3531,
      "Ġcorrespond": 3532,
      "Ġclusters": 3533,
      "Ġthor": 3534,
      "Ġprofile": 3535,
      "aries": 3536,
      "Ġtend": 3537,
      "clear": 3538,
      "Ġlamb": 3539,
      "Ġadverse": 3540,
      "Ġsubset": 3541,
      "56": 3542,
      "Ġretic": 3543,
      "Ġchemorad": 3544,
      "Ġwound": 3545,
      "Ġ32": 3546,
      "oplastic": 3547,
      "Ġdemonstrates": 3548,
      "olution": 3549,
      "involved": 3550,
      "Ġhcc": 3551,
      "uary": 3552,
      "Ġhar": 3553,
      "Ġneu": 3554,
      "Ġcytoplasmic": 3555,
      "Ġml": 3556,
      "Ġfish": 3557,
      "Ġepiderm": 3558,
      "Ġactivities": 3559,
      "gs": 3560,
      "plet": 3561,
      "Ġlic": 3562,
      "Ġ39": 3563,
      "Ġfibrobl": 3564,
      "Ġnone": 3565,
      "ï¿½ï¿½": 3566,
      "struct": 3567,
      "oidal": 3568,
      "Ġreceptors": 3569,
      "adenoma": 3570,
      "cat": 3571,
      "Ġmyc": 3572,
      "Ġelectron": 3573,
      "Ġfas": 3574,
      "Ġdoses": 3575,
      "Ġepid": 3576,
      "iveness": 3577,
      "Ġclot": 3578,
      "Ġlife": 3579,
      "pathy": 3580,
      "Ġlarger": 3581,
      "Ġdoc": 3582,
      "Ġterminal": 3583,
      "Ġtransit": 3584,
      "Ġnodal": 3585,
      "Ġlater": 3586,
      "small": 3587,
      "Ġdeposition": 3588,
      "ider": 3589,
      "Ġartic": 3590,
      "vascular": 3591,
      "Ġhepatitis": 3592,
      "Ġreal": 3593,
      "Ġstrongly": 3594,
      "Ġpract": 3595,
      "Ġsubcutaneous": 3596,
      "cam": 3597,
      "oxy": 3598,
      "32": 3599,
      "inc": 3600,
      "Ġuninvolved": 3601,
      "oun": 3602,
      "Ġwhite": 3603,
      "Ġhelicobacter": 3604,
      "Ġdrugs": 3605,
      "Ġsubjects": 3606,
      "oblastoma": 3607,
      "Ġregarding": 3608,
      "Ġdense": 3609,
      "ilineage": 3610,
      "ime": 3611,
      "Ġdimens": 3612,
      "Ġmucin": 3613,
      "Ġnet": 3614,
      "amed": 3615,
      "Ġleading": 3616,
      "Ġsynt": 3617,
      "Ġnf": 3618,
      "renal": 3619,
      "lr": 3620,
      "ption": 3621,
      "down": 3622,
      "hyd": 3623,
      "Ġapplied": 3624,
      "Ġrang": 3625,
      "Ġtwenty": 3626,
      "anning": 3627,
      "ling": 3628,
      "Ġsept": 3629,
      "Ġfungal": 3630,
      "Ġdev": 3631,
      "Ġorder": 3632,
      "Ġpc": 3633,
      "Ġvariable": 3634,
      "activ": 3635,
      "ision": 3636,
      "mod": 3637,
      "Ġalb": 3638,
      "rog": 3639,
      "ensus": 3640,
      "amp": 3641,
      "Ġinterpretation": 3642,
      "Ġlate": 3643,
      "bm": 3644,
      "oz": 3645,
      "oids": 3646,
      "erating": 3647,
      "othes": 3648,
      "Ġtechniques": 3649,
      "Ġintroduction": 3650,
      "Ġsclerosis": 3651,
      "Ġlichen": 3652,
      "Ġcauses": 3653,
      "Ġcarcinogenesis": 3654,
      "Ġgy": 3655,
      "Ġamyl": 3656,
      "appab": 3657,
      "Ġatrophy": 3658,
      "Ġheart": 3659,
      "Ġconsecutive": 3660,
      "ulations": 3661,
      "Ġhemorrhage": 3662,
      "Ġped": 3663,
      "inib": 3664,
      "etts": 3665,
      "Ġimplic": 3666,
      "ione": 3667,
      "Ġuterus": 3668,
      "Ġphot": 3669,
      "Ġcurrently": 3670,
      "Ġlambda": 3671,
      "ethyl": 3672,
      "Ġsequencing": 3673,
      "verage": 3674,
      "ocol": 3675,
      "osomal": 3676,
      "Ġgestational": 3677,
      "Ġmonocytes": 3678,
      "genital": 3679,
      "Ġglandular": 3680,
      "Ġconsensus": 3681,
      "Ġvag": 3682,
      "Ġtargeted": 3683,
      "Ġ&": 3684,
      "Ġtypical": 3685,
      "Ġtemp": 3686,
      "Ġmultifocal": 3687,
      "juvant": 3688,
      "Ġ75": 3689,
      "Ġaims": 3690,
      "dl": 3691,
      "Ġpresenting": 3692,
      "Ġiliac": 3693,
      "ucose": 3694,
      "mt": 3695,
      "Ġfluorescence": 3696,
      "Ġhematopoiesis": 3697,
      "iological": 3698,
      "Ġcontext": 3699,
      "Ġorgans": 3700,
      "Ġassays": 3701,
      "Ġsurve": 3702,
      "way": 3703,
      "Ġmicroscopically": 3704,
      "Ġcartil": 3705,
      "ma": 3706,
      "aving": 3707,
      "Ġcand": 3708,
      "ufficient": 3709,
      "Ġlat": 3710,
      "|>-": 3711,
      "Ġdisorders": 3712,
      "39": 3713,
      "Ġsperm": 3714,
      "ties": 3715,
      "Ġaltern": 3716,
      "Ġaggregate": 3717,
      "Ġclos": 3718,
      "Ġrespir": 3719,
      "apse": 3720,
      "Ġwild": 3721,
      "Ġae": 3722,
      "Ġbasis": 3723,
      "Ġstrat": 3724,
      "85": 3725,
      "Ġpromising": 3726,
      "ifted": 3727,
      "atty": 3728,
      "Ġpending": 3729,
      "47": 3730,
      "Ġhpf": 3731,
      "Ġcbc": 3732,
      "Ġcop": 3733,
      "Ġfluid": 3734,
      "Ġnasal": 3735,
      "Ġcandid": 3736,
      "fundic": 3737,
      "Ġprospective": 3738,
      "Ġlo": 3739,
      "Ġtreatments": 3740,
      "imin": 3741,
      "Ġidentification": 3742,
      "Ġpneumon": 3743,
      "Ġaccumulation": 3744,
      "achus": 3745,
      "Ġvein": 3746,
      "Ġventric": 3747,
      "Ġpen": 3748,
      "Ġbasophil": 3749,
      "achusetts": 3750,
      "Ġtrilineage": 3751,
      "Ġmassachusetts": 3752,
      "Ġfuture": 3753,
      "Ġtransitional": 3754,
      "Ġhypothes": 3755,
      "Ġuncom": 3756,
      "Ġsox": 3757,
      "Ġms": 3758,
      "ux": 3759,
      "ened": 3760,
      "Ġintensity": 3761,
      "Ġcompare": 3762,
      "Ġvascul": 3763,
      "Ġimportance": 3764,
      "Ġhct": 3765,
      "okines": 3766,
      "ints": 3767,
      "Ġpathol": 3768,
      "Ġprep": 3769,
      "Ġimmunostains": 3770,
      "kappab": 3771,
      "orbidity": 3772,
      "Ġtrials": 3773,
      "Ġresulting": 3774,
      "coh": 3775,
      "rat": 3776,
      "Ġtnf": 3777,
      "Ġagent": 3778,
      "angl": 3779,
      "derived": 3780,
      "Ġexposed": 3781,
      "43": 3782,
      "ower": 3783,
      "Ġquality": 3784,
      "here": 3785,
      "Ġdied": 3786,
      "Ġseem": 3787,
      "Ġindividuals": 3788,
      "Ġtherapies": 3789,
      "Ġachieved": 3790,
      "Ġedema": 3791,
      "mg": 3792,
      "Ġintervent": 3793,
      "Ġclinicopathologic": 3794,
      "Ġinfected": 3795,
      "Ġmyoc": 3796,
      "Ġsuppress": 3797,
      "aqu": 3798,
      "oxyl": 3799,
      "Ġimmature": 3800,
      "rheic": 3801,
      "Ġmales": 3802,
      "Ġod": 3803,
      "Ġileal": 3804,
      "Ġglomeruli": 3805,
      "Ġlocally": 3806,
      "Ġderived": 3807,
      "Ġanat": 3808,
      "borrheic": 3809,
      "Ġcarr": 3810,
      "Ġwhole": 3811,
      "Ġunderstanding": 3812,
      "Ġcyclin": 3813,
      "Ġproperties": 3814,
      "Ġhand": 3815,
      "Ġmitochond": 3816,
      "oadjuvant": 3817,
      "Ġmostly": 3818,
      "Ġhyst": 3819,
      "erect": 3820,
      "Ġsalivary": 3821,
      "Ġknock": 3822,
      "dle": 3823,
      "Ġnr": 3824,
      "Ġnest": 3825,
      "ached": 3826,
      "Ġmmp": 3827,
      "umb": 3828,
      "Ġcontinu": 3829,
      "ators": 3830,
      "02": 3831,
      "Ġros": 3832,
      "icle": 3833,
      "Ġhighest": 3834,
      "Ġsmoking": 3835,
      "Ġintraepidermal": 3836,
      "Ġq": 3837,
      "Ġconj": 3838,
      "Ġseborrheic": 3839,
      "ded": 3840,
      "88": 3841,
      "Ġeth": 3842,
      "Ġnat": 3843,
      "Ġskeletal": 3844,
      "Ġrespiratory": 3845,
      "Ġacin": 3846,
      "opic": 3847,
      "percent": 3848,
      "Ġevents": 3849,
      "Ġpromoter": 3850,
      "Ġpotentially": 3851,
      "Ġperivascular": 3852,
      "Ġdig": 3853,
      "ene": 3854,
      "Ġsubst": 3855,
      "everity": 3856,
      "Ġfavor": 3857,
      "Ġsplen": 3858,
      "Ġhypertroph": 3859,
      "Ġconsists": 3860,
      "Ġrarely": 3861,
      "Ġepithelioid": 3862,
      "Ġcongenital": 3863,
      "right": 3864,
      "Ġstrain": 3865,
      "Ġdogs": 3866,
      "Ġimmunostain": 3867,
      "Ġchalleng": 3868,
      "Ġunclear": 3869,
      "apt": 3870,
      "rolled": 3871,
      "Ġleg": 3872,
      "onuclear": 3873,
      "Ġjan": 3874,
      "79": 3875,
      "iotic": 3876,
      "ophys": 3877,
      "Ġlog": 3878,
      "Ġscalp": 3879,
      "percentage": 3880,
      "Ġneoadjuvant": 3881,
      "Ġpolys": 3882,
      "Ġprovided": 3883,
      "erectomy": 3884,
      "Ġauth": 3885,
      "Ġves": 3886,
      "Ġimmunore": 3887,
      "].": 3888,
      "fib": 3889,
      "Ġnm": 3890,
      "cit": 3891,
      "Ġuncommon": 3892,
      "bs": 3893,
      "ink": 3894,
      "Ġtgf": 3895,
      "Ġagre": 3896,
      "Ġprovides": 3897,
      "Ġamyloid": 3898,
      "ulate": 3899,
      "Ġprotective": 3900,
      "ogenous": 3901,
      "Ġatrophic": 3902,
      "pm": 3903,
      "osome": 3904,
      "Ġfemales": 3905,
      "ynamic": 3906,
      "Ġprogressive": 3907,
      "Ġtt": 3908,
      "Ġulceration": 3909,
      "Ġregen": 3910,
      "Ġdermatitis": 3911,
      "hn": 3912,
      "Ġpolymerase": 3913,
      "Ġmonit": 3914,
      "yelocytes": 3915,
      "Ġfibrocystic": 3916,
      "Ġinvestigation": 3917,
      "Ġbro": 3918,
      "illa": 3919,
      "elling": 3920,
      "Ġinclusion": 3921,
      "ercul": 3922,
      "Ġcasp": 3923,
      "eline": 3924,
      "Ġblocks": 3925,
      "Ġnecrotic": 3926,
      "Ġpept": 3927,
      "Ġthickness": 3928,
      "66": 3929,
      "Ġstatistical": 3930,
      "Ġcut": 3931,
      "Ġblue": 3932,
      "48": 3933,
      "Ġmesenchymal": 3934,
      "Ġmuscularis": 3935,
      "Ġunivers": 3936,
      "iol": 3937,
      "enin": 3938,
      "Ġcompletely": 3939,
      "oar": 3940,
      "umin": 3941,
      "oglob": 3942,
      "Ġtong": 3943,
      "Ġcortical": 3944,
      "uch": 3945,
      "immune": 3946,
      "Ġmcv": 3947,
      "Ġdatabase": 3948,
      "ument": 3949,
      "Ġplt": 3950,
      "Ġamplification": 3951,
      "Ġhr": 3952,
      "Ġmyx": 3953,
      "Ġyield": 3954,
      "Ġfatty": 3955,
      "Ġsple": 3956,
      "Ġpercentile": 3957,
      "Ġec": 3958,
      "Ġdisorder": 3959,
      "Ġble": 3960,
      "Ġplus": 3961,
      "bp": 3962,
      "Ġdeposits": 3963,
      "Ġexcept": 3964,
      "Ġak": 3965,
      "Ġduration": 3966,
      "ograft": 3967,
      "Ġmim": 3968,
      "eff": 3969,
      "icious": 3970,
      "Ġ>/=": 3971,
      "Ġdescending": 3972,
      "Ġsubgroup": 3973,
      "enia": 3974,
      "radiation": 3975,
      "Ġdepartment": 3976,
      "nex": 3977,
      "emat": 3978,
      "Ġhgb": 3979,
      "Ġoccurs": 3980,
      "ture": 3981,
      "Ġregulation": 3982,
      "arynx": 3983,
      "Ġsurrounding": 3984,
      "Ġscores": 3985,
      "Ġcarb": 3986,
      "Ġdistinguish": 3987,
      "Ġnorm": 3988,
      "Ġce": 3989,
      "yg": 3990,
      "ullary": 3991,
      "Ġana": 3992,
      "Ġenzyme": 3993,
      "Ġdeveloping": 3994,
      "Ġmediast": 3995,
      "Ġspinal": 3996,
      "Ġinflamed": 3997,
      "Ġundergoing": 3998,
      "Ġxen": 3999,
      "Ġhair": 4000,
      "ancy": 4001,
      "Ġhepatocellular": 4002,
      "Ġclearance": 4003,
      "Ġtol": 4004,
      "Ġimmunos": 4005,
      "rectomy": 4006,
      "Ġmiddle": 4007,
      "Ġjanuary": 4008,
      "Ġbenefit": 4009,
      "Ġfine": 4010,
      "Ġinduce": 4011,
      "most": 4012,
      "Ġvisual": 4013,
      "Ġtongue": 4014,
      "Ġ42": 4015,
      "Ġtransplantation": 4016,
      "Ġvulv": 4017,
      "201": 4018,
      "Ġcritical": 4019,
      "Ġapoptotic": 4020,
      "ardial": 4021,
      "Ġphosphory": 4022,
      "Ġsn": 4023,
      "lor": 4024,
      "Ġportion": 4025,
      "arrang": 4026,
      "Ġthough": 4027,
      "Ġmetabolic": 4028,
      "Ġintermediate": 4029,
      "Ġimmunophenot": 4030,
      "Ġgranulation": 4031,
      "Ġdeliv": 4032,
      "Ġjo": 4033,
      "venous": 4034,
      "uit": 4035,
      "Ġtrac": 4036,
      "Ġmot": 4037,
      "otid": 4038,
      "Ġadenomas": 4039,
      "def": 4040,
      "Ġestablish": 4041,
      "la": 4042,
      "Ġbehavior": 4043,
      "42": 4044,
      "Ġbinding": 4045,
      "Ġprocesses": 4046,
      "Ġmaturing": 4047,
      "46": 4048,
      "Ġsimple": 4049,
      "time": 4050,
      "rolif": 4051,
      "Ġaber": 4052,
      "ched": 4053,
      "Ġchond": 4054,
      "ios": 4055,
      "Ġapplication": 4056,
      "Ġcartilage": 4057,
      "Ġremain": 4058,
      "Ġ41": 4059,
      "Ġaccurate": 4060,
      "Ġpregn": 4061,
      "Ġdiver": 4062,
      "affin": 4063,
      "Ġimage": 4064,
      "Ġwid": 4065,
      "Ġka": 4066,
      "Ġcytogenetic": 4067,
      "Ġextending": 4068,
      "Ġcarried": 4069,
      "eratosis": 4070,
      "Ġconference": 4071,
      "Ġinfections": 4072,
      "Ġlocalized": 4073,
      "Ġlymphs": 4074,
      "200": 4075,
      "Ġmononuclear": 4076,
      "ronchial": 4077,
      "Ġvegf": 4078,
      "Ġstrategies": 4079,
      "Ġhaving": 4080,
      "Ġthird": 4081,
      "Ġoper": 4082,
      "rolog": 4083,
      "Ġthigh": 4084,
      "Ġextremely": 4085,
      "virus": 4086,
      "arct": 4087,
      "aged": 4088,
      "adipose": 4089,
      "Ġadrenal": 4090,
      "Ġspleen": 4091,
      "Ġadditionally": 4092,
      "othel": 4093,
      "Ġaverage": 4094,
      "Ġfood": 4095,
      "Ġappendix": 4096,
      "activity": 4097,
      "Ġwide": 4098,
      "Ġdimension": 4099,
      "Ġmorbidity": 4100,
      "ane": 4101,
      "Ġsafety": 4102,
      "Ġauthors": 4103,
      "Ġtumorigen": 4104,
      "Ġestrogen": 4105,
      "ands": 4106,
      "78": 4107,
      "Ġprotocol": 4108,
      "Ġextend": 4109,
      "Ġhip": 4110,
      "Ġincident": 4111,
      "Ġentirely": 4112,
      "uces": 4113,
      "Ġsensitive": 4114,
      "Ġconn": 4115,
      "Ġta": 4116,
      "Ġurinary": 4117,
      "uble": 4118,
      "Ġbiomarker": 4119,
      "function": 4120,
      "utes": 4121,
      "Ġrepl": 4122,
      "abs": 4123,
      "Ġsubmucosal": 4124,
      "wide": 4125,
      "Ġdetail": 4126,
      "Ġproportion": 4127,
      "oflu": 4128,
      "lym": 4129,
      "Ġmgh": 4130,
      "Ġnine": 4131,
      "Ġmonos": 4132,
      "rec": 4133,
      "Ġfiber": 4134,
      "Ġlymphaden": 4135,
      "Ġtop": 4136,
      "Ġagreement": 4137,
      "ention": 4138,
      "acement": 4139,
      "ulf": 4140,
      "rox": 4141,
      "Ġrelevant": 4142,
      "Ġpax": 4143,
      "Ġsess": 4144,
      "aily": 4145,
      "Ġfibroadipose": 4146,
      "Ġcytokines": 4147,
      "Ġintrap": 4148,
      "Ġreference": 4149,
      "mut": 4150,
      "Ġ65": 4151,
      "Ġsuspicious": 4152,
      "Ġacqu": 4153,
      "Ġdiagnoses": 4154,
      "tc": 4155,
      "oderm": 4156,
      "Ġhysterectomy": 4157,
      "Ġect": 4158,
      "Ġinfluence": 4159,
      "Ġpi": 4160,
      "oxylin": 4161,
      "Ġbasement": 4162,
      "ours": 4163,
      "Ġrepresents": 4164,
      "Ġparticip": 4165,
      "Ġconclud": 4166,
      "Ġstrategy": 4167,
      "Ġcalculated": 4168,
      "Ġcorrect": 4169,
      "Ġoct": 4170,
      "Ġvariants": 4171,
      "Ġnetwork": 4172,
      "Ġpleomorphic": 4173,
      "ogran": 4174,
      "Ġpal": 4175,
      "Ġhistiocytes": 4176,
      "Ġscan": 4177,
      "Ġdepend": 4178,
      "Ġgenomic": 4179,
      "Ġenlarged": 4180,
      "Ġnumb": 4181,
      "icitis": 4182,
      "etes": 4183,
      "Ġtp": 4184,
      "pet": 4185,
      "Ġbur": 4186,
      "less": 4187,
      "ritic": 4188,
      "Ġfron": 4189,
      "ensitivity": 4190,
      "Ġnature": 4191,
      "axel": 4192,
      "overy": 4193,
      "ament": 4194,
      "Ġold": 4195,
      "Ġgenerally": 4196,
      "Ġguid": 4197,
      "Ġspectrum": 4198,
      "Ġtoward": 4199,
      "Ġsubch": 4200,
      "Ġill": 4201,
      "ulating": 4202,
      "fold": 4203,
      "ino": 4204,
      "Ġretro": 4205,
      "idine": 4206,
      "Ġgranular": 4207,
      "Ġcorresponding": 4208,
      "arily": 4209,
      "lymph": 4210,
      "Ġserrated": 4211,
      "Ġ55": 4212,
      "catenin": 4213,
      "Ġaround": 4214,
      "lit": 4215,
      "Ġdone": 4216,
      "ula": 4217,
      "Ġbacterial": 4218,
      "array": 4219,
      "Ġtransm": 4220,
      "Ġautoimmune": 4221,
      "Ġmd": 4222,
      "oclonal": 4223,
      "Ġkras": 4224,
      "pro": 4225,
      "ique": 4226,
      "Ġcaspase": 4227,
      "Ġdaily": 4228,
      "Ġulcer": 4229,
      "Ġpreserved": 4230,
      "Ġhal": 4231,
      "oy": 4232,
      "Ġmasses": 4233,
      "Ġfibers": 4234,
      "mean": 4235,
      "organ": 4236,
      "ĠâĢ¢": 4237,
      "Ġincreases": 4238,
      "Ġhypox": 4239,
      "Ġcrest": 4240,
      "the": 4241,
      "Ġexpans": 4242,
      "Ġemph": 4243,
      "Ġbodies": 4244,
      "Ġte": 4245,
      "Ġlast": 4246,
      "Ġinfarct": 4247,
      "Ġwater": 4248,
      "ta": 4249,
      "itation": 4250,
      "Ġhormone": 4251,
      "Ġrearrang": 4252,
      "Ġoptimal": 4253,
      "Ġpg": 4254,
      "Ġtargets": 4255,
      "operat": 4256,
      "Ġhypercellular": 4257,
      "Ġdiabetic": 4258,
      "Ġnerv": 4259,
      "Ġremoval": 4260,
      "Ġdelet": 4261,
      "Ġbraf": 4262,
      "ximum": 4263,
      "Ġexcised": 4264,
      "Ġgo": 4265,
      "-,": 4266,
      "Ġducts": 4267,
      "55": 4268,
      "Ġten": 4269,
      "Ġwar": 4270,
      "Ġpolyps": 4271,
      "Ġmitoses": 4272,
      "abine": 4273,
      "Ġtubercul": 4274,
      "Ġtypically": 4275,
      "Ġrabb": 4276,
      "Ġconstit": 4277,
      "Ġoccurrence": 4278,
      "emic": 4279,
      "Ġextracellular": 4280,
      "Ġenrolled": 4281,
      "Ġseverity": 4282,
      "Ġbm": 4283,
      "Ġsegmental": 4284,
      "Ġaxillary": 4285,
      "flu": 4286,
      "ferase": 4287,
      "ining": 4288,
      "73": 4289,
      "Ġpersistent": 4290,
      "usted": 4291,
      "Ġgastropathy": 4292,
      "Ġcrypt": 4293,
      "Ġnit": 4294,
      "Ġmonoclonal": 4295,
      "Ġ46": 4296,
      "ruct": 4297,
      "Ġthorac": 4298,
      "aches": 4299,
      "Ġuniversity": 4300,
      "tle": 4301,
      "orter": 4302,
      "Ġplays": 4303,
      "Ġradiological": 4304,
      "abd": 4305,
      "Ġtargeting": 4306,
      "Ġhaz": 4307,
      "iasis": 4308,
      "Ġcurative": 4309,
      "rs": 4310,
      "Ġcontribute": 4311,
      "fts": 4312,
      "Ġgranulomatous": 4313,
      "Ġpy": 4314,
      "Ġmand": 4315,
      "Ġtimes": 4316,
      "Ġparaffin": 4317,
      "Ġsynthes": 4318,
      "Ġcontent": 4319,
      "Ġpromyelocytes": 4320,
      "Ġexpress": 4321,
      "Ġassoci": 4322,
      "Ġreconstr": 4323,
      "Ġprofiles": 4324,
      "Ġ72": 4325,
      "umab": 4326,
      "astom": 4327,
      "Ġnumbers": 4328,
      "Ġparticles": 4329,
      "Ġdescript": 4330,
      "Ġkne": 4331,
      "Ġentity": 4332,
      "edded": 4333,
      "03": 4334,
      "Ġvariables": 4335,
      "oding": 4336,
      "operatively": 4337,
      "Ġring": 4338,
      "Ġfinally": 4339,
      "Ġetiology": 4340,
      "Ġplaqu": 4341,
      "den": 4342,
      "Ġnatural": 4343,
      "edge": 4344,
      "Ġresemb": 4345,
      "Ġactivated": 4346,
      "for": 4347,
      "Ġyet": 4348,
      "Ġsubsequently": 4349,
      "Ġfunctions": 4350,
      "Ġstate": 4351,
      "Ġflat": 4352,
      "Ġstructure": 4353,
      "Ġled": 4354,
      "athione": 4355,
      "eb": 4356,
      "Ġcortex": 4357,
      "Ġunivariate": 4358,
      "opathology": 4359,
      "89": 4360,
      "onin": 4361,
      "Ġtransl": 4362,
      "Ġunique": 4363,
      "Ġexist": 4364,
      "Ġborder": 4365,
      "Ġpleural": 4366,
      "Ġendometrioid": 4367,
      "Ġcompounds": 4368,
      "Ġsalping": 4369,
      "Ġaltered": 4370,
      "Ġhazard": 4371,
      "Ġimprovement": 4372,
      "ning": 4373,
      "illance": 4374,
      "Ġanother": 4375,
      "gal": 4376,
      "Ġobserv": 4377,
      "Ġexamine": 4378,
      "Ġindicating": 4379,
      "resh": 4380,
      "Ġdiabetes": 4381,
      "iatric": 4382,
      "Ġbal": 4383,
      "Ġischemia": 4384,
      "Ġfeas": 4385,
      "Ġtel": 4386,
      "61": 4387,
      "Ġwedge": 4388,
      "Ġalmost": 4389,
      "],": 4390,
      "Ġfif": 4391,
      "Ġintrac": 4392,
      "Ġ43": 4393,
      "sil": 4394,
      "Ġinvad": 4395,
      "Ġprote": 4396,
      "Ġlas": 4397,
      "Ġslide": 4398,
      "Ġamel": 4399,
      "arent": 4400,
      "Ġgem": 4401,
      "Ġcircum": 4402,
      "Ġremaining": 4403,
      "Ġdend": 4404,
      "87": 4405,
      "Ġimmunostaining": 4406,
      "Ġfield": 4407,
      "aking": 4408,
      "Ġtesticular": 4409,
      "Ġproposed": 4410,
      "Ġadipose": 4411,
      "Ġrs": 4412,
      "Ġupon": 4413,
      "Ġperitoneal": 4414,
      "enh": 4415,
      "ode": 4416,
      "Ġworse": 4417,
      "Ġforeign": 4418,
      "Ġepidermis": 4419,
      "ardium": 4420,
      "Ġaxilla": 4421,
      "Ġhost": 4422,
      "weight": 4423,
      "Ġglutathione": 4424,
      "Ġreticulin": 4425,
      "plan": 4426,
      "Ġvariety": 4427,
      "Ġcategor": 4428,
      "Ġchorionic": 4429,
      "Ġanastom": 4430,
      "ectable": 4431,
      "pi": 4432,
      "Ġminor": 4433,
      "Ġproduct": 4434,
      "oarthritis": 4435,
      "bec": 4436,
      "ofluorescence": 4437,
      "cy": 4438,
      "ucid": 4439,
      "Ġty": 4440,
      "Ġsurveillance": 4441,
      "ians": 4442,
      "Ġlobectomy": 4443,
      "Ġamp": 4444,
      "ves": 4445,
      "Ġestimated": 4446,
      "69": 4447,
      "Ġebv": 4448,
      "Ġoff": 4449,
      "iability": 4450,
      "Ġhematoxylin": 4451,
      "mic": 4452,
      "Ġprecis": 4453,
      "cn": 4454,
      "Ġinfiltrating": 4455,
      "Ġrepresentative": 4456,
      "Ġrol": 4457,
      "Ġadhesion": 4458,
      "Ġalcoh": 4459,
      "Ġ2004": 4460,
      "Ġpublished": 4461,
      "Ġpharm": 4462,
      "Ġtraum": 4463,
      "inter": 4464,
      "Ġintest": 4465,
      "Ġknee": 4466,
      "Ġdiscussed": 4467,
      "Ġgrading": 4468,
      "Ġumb": 4469,
      "Ġfeature": 4470,
      "Ġterms": 4471,
      "fu": 4472,
      "Ġdepth": 4473,
      "Ġantic": 4474,
      "Ġaspiration": 4475,
      "Ġlike": 4476,
      "Ġevent": 4477,
      "oster": 4478,
      "eared": 4479,
      "Ġ44": 4480,
      "isc": 4481,
      "Ġna": 4482,
      "Ġoxy": 4483,
      "oblasts": 4484,
      "Ġcurve": 4485,
      "Ġtemporal": 4486,
      "fact": 4487,
      "Ġairway": 4488,
      "Ġart": 4489,
      "roliferative": 4490,
      "))": 4491,
      "Ġinn": 4492,
      "Ġprocedures": 4493,
      "Ġfusion": 4494,
      "Ġlittle": 4495,
      "Ġplat": 4496,
      "Ġlymphocyte": 4497,
      "Ġtracts": 4498,
      "Ġenhancement": 4499,
      "Ġlaryngeal": 4500,
      "Ġdon": 4501,
      "lement": 4502,
      "odal": 4503,
      "Ġcapsule": 4504,
      "Ġvacu": 4505,
      "|>.": 4506,
      "Ġalternative": 4507,
      "Ġvalve": 4508,
      "Ġthirty": 4509,
      "Ġclonal": 4510,
      "Ġolig": 4511,
      "Ġlonger": 4512,
      "86": 4513,
      "Ġenter": 4514,
      "Ġster": 4515,
      "Ġcholecystectomy": 4516,
      "Ġeros": 4517,
      "phal": 4518,
      "Ġproduced": 4519,
      "Ġacinar": 4520,
      "Ġsuscept": 4521,
      "gamma": 4522,
      "ension": 4523,
      "fdg": 4524,
      "Ġdocument": 4525,
      "Ġmetabolism": 4526,
      "Ġelucid": 4527,
      "ware": 4528,
      "Ġcp": 4529,
      "Ġcenters": 4530,
      "Ġcircul": 4531,
      "Ġgenome": 4532,
      "Ġinactive": 4533,
      "Ġadults": 4534,
      "ream": 4535,
      "Ġproble": 4536,
      "Ġcertain": 4537,
      "Ġfraction": 4538,
      "andular": 4539,
      "Ġvisc": 4540,
      "Ġastrocyt": 4541,
      "mri": 4542,
      "point": 4543,
      "Ġdermis": 4544,
      "Ġolder": 4545,
      "549": 4546,
      "left": 4547,
      "ying": 4548,
      "Ġhis": 4549,
      "Ġapparent": 4550,
      "41": 4551,
      "77": 4552,
      "ank": 4553,
      "Ġroles": 4554,
      "roc": 4555,
      "Ġapproaches": 4556,
      "bar": 4557,
      "Ġusual": 4558,
      "Ġpitu": 4559,
      "Ġclose": 4560,
      "Ġarteries": 4561,
      "hpv": 4562,
      "ender": 4563,
      "Ġcam": 4564,
      "aced": 4565,
      "teen": 4566,
      "leu": 4567,
      "ata": 4568,
      "Ġoil": 4569,
      "Ġosteoarthritis": 4570,
      "Ġglomerular": 4571,
      "orectomy": 4572,
      "Ġcirrh": 4573,
      "aring": 4574,
      "Ġgreatest": 4575,
      "Ġcheek": 4576,
      "hetic": 4577,
      "Ġrecorded": 4578,
      "Ġsessile": 4579,
      "Ġlocalization": 4580,
      "Ġquest": 4581,
      "Ġcytotoxic": 4582,
      "Ġ47": 4583,
      "Ġaortic": 4584,
      "Ġflex": 4585,
      "Ġexpansion": 4586,
      "Ġexaminations": 4587,
      "Ġelastic": 4588,
      "ranial": 4589,
      "Ġirradiation": 4590,
      "perfusion": 4591,
      "ternal": 4592,
      "Ġpoint": 4593,
      "Ġtubes": 4594,
      "Ġ56": 4595,
      "agic": 4596,
      "Ġcorne": 4597,
      "Ġkaplan": 4598,
      "Ġumbil": 4599,
      "Ġ52": 4600,
      "Ġpossib": 4601,
      "Ġabdomen": 4602,
      "illous": 4603,
      "dh": 4604,
      "Ġthroughout": 4605,
      "ror": 4606,
      "ophorectomy": 4607,
      "Ġinsulin": 4608,
      "Ġeg": 4609,
      "Ġsupporting": 4610,
      "Ġwidely": 4611,
      "mit": 4612,
      "diagn": 4613,
      "by": 4614,
      "Ġmulti": 4615,
      "ude": 4616,
      "Ġtrig": 4617,
      "Ġdendritic": 4618,
      "Ġspace": 4619,
      "Ġopen": 4620,
      "83": 4621,
      "Ġrespond": 4622,
      "Ġreferred": 4623,
      "Ġlaser": 4624,
      "Ġnas": 4625,
      "Ġttf": 4626,
      "Ġexplore": 4627,
      "Ġintracellular": 4628,
      "Ġlimit": 4629,
      "oxide": 4630,
      "Ġarchitectural": 4631,
      "Ġ85": 4632,
      "Ġinst": 4633,
      "Ġneural": 4634,
      "Ġpituitary": 4635,
      "Ġfigure": 4636,
      "Ġinteraction": 4637,
      "Ġremained": 4638,
      "Ġbroad": 4639,
      "aces": 4640,
      "anal": 4641,
      "acity": 4642,
      "Ġalveolar": 4643,
      "Ġoverl": 4644,
      "Ġvacc": 4645,
      "Ġdisr": 4646,
      "Ġantit": 4647,
      "Ġ66": 4648,
      "|>).": 4649,
      "Ġimmunoreactivity": 4650,
      "Ġreduce": 4651,
      "Ġmitochondrial": 4652,
      "Ġreceiving": 4653,
      "Ġprostat": 4654,
      "Ġpopulations": 4655,
      "Ġneuronal": 4656,
      "Ġdifferentiate": 4657,
      "heal": 4658,
      "clin": 4659,
      "ditional": 4660,
      "Ġgangl": 4661,
      "Ġorb": 4662,
      "meier": 4663,
      "Ġglucose": 4664,
      "Ġenvironment": 4665,
      "Ġchromosome": 4666,
      "Ġrestric": 4667,
      "Ġrecords": 4668,
      "Ġpanel": 4669,
      "72": 4670,
      "Ġreverse": 4671,
      "Ġshoulder": 4672,
      "Ġmum": 4673,
      "ollicular": 4674,
      "lob": 4675,
      "atal": 4676,
      "Ġlabeled": 4677,
      "rown": 4678,
      "Ġtransition": 4679,
      "atch": 4680,
      "Ġremoved": 4681,
      "osider": 4682,
      "Ġinfect": 4683,
      "reted": 4684,
      "Ġarthritis": 4685,
      "Ġureter": 4686,
      "ilit": 4687,
      "leukin": 4688,
      "Ġimmunofluorescence": 4689,
      "Ġamount": 4690,
      "urine": 4691,
      "Ġmicrom": 4692,
      "Ġexternal": 4693,
      "Ġlungs": 4694,
      "Ġmis": 4695,
      "Ġpractice": 4696,
      "81": 4697,
      "Ġbiliary": 4698,
      "Ġng": 4699,
      "Ġmediastinal": 4700,
      "Ġ(>": 4701,
      "Ġpneumonia": 4702,
      "62": 4703,
      "Ġtubul": 4704,
      "Ġib": 4705,
      "Ġoxygen": 4706,
      "Ġpotent": 4707,
      "Ġcomment": 4708,
      "Ġsod": 4709,
      "Ġplacental": 4710,
      "Ġheterogeneous": 4711,
      "Ġintestine": 4712,
      "Ġultrason": 4713,
      "struction": 4714,
      "Ġknockdown": 4715,
      "Ġinternal": 4716,
      "Ġlu": 4717,
      "Ġbasophils": 4718,
      "Ġeos": 4719,
      "Ġvi": 4720,
      "clerosis": 4721,
      "Ġmesent": 4722,
      "Ġcholecystitis": 4723,
      "enge": 4724,
      "Ġbio": 4725,
      "71": 4726,
      "Ġcerebral": 4727,
      "64": 4728,
      "Ġmutant": 4729,
      "Ġcirculating": 4730,
      "Ġoroph": 4731,
      "Ġupregulated": 4732,
      "hood": 4733,
      "sized": 4734,
      "Ġmanner": 4735,
      "osomes": 4736,
      "ese": 4737,
      "Ġ'": 4738,
      "Ġhmb": 4739,
      "Ġbleeding": 4740,
      "erens": 4741,
      "Ġdysfunction": 4742,
      "Ġdeferens": 4743,
      "urgical": 4744,
      "Ġviable": 4745,
      "Ġ53": 4746,
      "ipple": 4747,
      "lin": 4748,
      "abel": 4749,
      "Ġenzymes": 4750,
      "Ġcs": 4751,
      "Ġemerg": 4752,
      "fluor": 4753,
      "class": 4754,
      "Ġlaparoscopic": 4755,
      "Ġaccompanied": 4756,
      "Ġrather": 4757,
      "Ġepidem": 4758,
      "Ġpredicted": 4759,
      "Ġpredicting": 4760,
      "Ġhemangi": 4761,
      "oxidase": 4762,
      "82": 4763,
      "Ġanalyze": 4764,
      "Ġaccount": 4765,
      "Ġfull": 4766,
      "Ġextends": 4767,
      "robl": 4768,
      "be": 4769,
      "Ġtable": 4770,
      "ember": 4771,
      "Ġ54": 4772,
      "Ġnever": 4773,
      "irus": 4774,
      "Ġhemosider": 4775,
      "iotherapy": 4776,
      "pn": 4777,
      "cribed": 4778,
      "Ġradial": 4779,
      "ings": 4780,
      "Ġexperience": 4781,
      "Ġintact": 4782,
      "umoral": 4783,
      "odg": 4784,
      "âĢĻ": 4785,
      "Ġexam": 4786,
      "month": 4787,
      "Ġmeasures": 4788,
      "Ġ57": 4789,
      "artic": 4790,
      "Ġumbilical": 4791,
      "ways": 4792,
      "Ġhours": 4793,
      "Ġallel": 4794,
      "Ġinterleukin": 4795,
      "Ġens": 4796,
      "ises": 4797,
      "Ġbul": 4798,
      "Ġ/": 4799,
      "Ġham": 4800,
      "Ġable": 4801,
      "Ġtren": 4802,
      "Ġadc": 4803,
      "my": 4804,
      "wise": 4805,
      "Ġ49": 4806,
      "Ġutil": 4807,
      "Ġcond": 4808,
      "|>,": 4809,
      "Ġrevers": 4810,
      "Ġimmunosup": 4811,
      "Ġprogress": 4812,
      "outh": 4813,
      "hnscc": 4814,
      "Ġsalpingo": 4815,
      "Ġpositively": 4816,
      "Ġsafe": 4817,
      "Ġ58": 4818,
      "overed": 4819,
      "Ġadhesions": 4820,
      "otomy": 4821,
      "Ġmolecules": 4822,
      "ophyt": 4823,
      "Ġhepatocytes": 4824,
      "Ġpharmac": 4825,
      "Ġfdg": 4826,
      "Ġunc": 4827,
      "Ġoperation": 4828,
      "Ġ62": 4829,
      "Ġexpressions": 4830,
      "uter": 4831,
      "Ġsat": 4832,
      "Ġcost": 4833,
      "Ġmaximum": 4834,
      ")/": 4835,
      "Ġanalysed": 4836,
      "inucle": 4837,
      "Ġgraft": 4838,
      "Ġoverexp": 4839,
      "Ġsynov": 4840,
      "ellar": 4841,
      "iments": 4842,
      "Ġsuppressed": 4843,
      "oplasmic": 4844,
      "esterol": 4845,
      "Ġoc": 4846,
      "ush": 4847,
      "Ġtumorigenesis": 4848,
      "rees": 4849,
      "Ġpac": 4850,
      "Ġsystems": 4851,
      "izes": 4852,
      "rosine": 4853,
      "citabine": 4854,
      "Ġquad": 4855,
      "Ġoccurring": 4856,
      "Ġangiogenesis": 4857,
      "oblastic": 4858,
      "Ġrelease": 4859,
      "Ġphen": 4860,
      "Ġvisceral": 4861,
      "Ġpower": 4862,
      "expression": 4863,
      "Ġbasos": 4864,
      "Ġhiv": 4865,
      "ibular": 4866,
      "alled": 4867,
      "odgkin": 4868,
      "Ġgender": 4869,
      "ges": 4870,
      "Ġpress": 4871,
      "emsa": 4872,
      "cember": 4873,
      "Ġsubstant": 4874,
      "openia": 4875,
      "Ġabscess": 4876,
      "opathic": 4877,
      "Ġpapillomavirus": 4878,
      "Ġvasculitis": 4879,
      "Ġ64": 4880,
      "Ġtuberculosis": 4881,
      "ocarcinoma": 4882,
      "Ġjoint": 4883,
      "Ġbaseline": 4884,
      "Ġintervention": 4885,
      "Ġclassical": 4886,
      "xt": 4887,
      "ductal": 4888,
      "num": 4889,
      "oophorectomy": 4890,
      "Ġcalcium": 4891,
      "eity": 4892,
      "Ġfil": 4893,
      "ke": 4894,
      "Ġsuppressor": 4895,
      "Ġrandomly": 4896,
      "Ġarticle": 4897,
      "Ġsuccessfully": 4898,
      "Ġperic": 4899,
      "riform": 4900,
      "116": 4901,
      "neu": 4902,
      "Ġcorrelate": 4903,
      "wann": 4904,
      "Ġmuch": 4905,
      "Ġ51": 4906,
      "Ġsurgically": 4907,
      "Ġchemoradiotherapy": 4908,
      "ved": 4909,
      "Ġrequire": 4910,
      "Ġpigmented": 4911,
      "off": 4912,
      "Ġtraditional": 4913,
      "Ġendometriosis": 4914,
      "Ġhyalin": 4915,
      "Ġmammary": 4916,
      "Ġpleura": 4917,
      "hyde": 4918,
      "Ġsour": 4919,
      "rag": 4920,
      "Ġswelling": 4921,
      "char": 4922,
      "Ġinitially": 4923,
      "Ġglobules": 4924,
      "Ġ67": 4925,
      "Ġdelivery": 4926,
      "Ġalcohol": 4927,
      "Ġchallenge": 4928,
      "Ġcytological": 4929,
      "Ġeye": 4930,
      "Ġisl": 4931,
      "84": 4932,
      "week": 4933,
      "eritoneal": 4934,
      "âĢĿ": 4935,
      "dehyde": 4936,
      "elet": 4937,
      "oon": 4938,
      "Ġthin": 4939,
      "Ġnow": 4940,
      "Ġhemosiderin": 4941,
      "dose": 4942,
      "erc": 4943,
      "ophag": 4944,
      "52": 4945,
      "Ġdecember": 4946,
      "Ġevery": 4947,
      "Ġlact": 4948,
      "lim": 4949,
      "Ġcreat": 4950,
      "Ġmodified": 4951,
      "Ġendoscopy": 4952,
      "Ġsplenic": 4953,
      "Ġ63": 4954,
      "Ġapplic": 4955,
      "Ġphosphorylation": 4956,
      "Ġhalf": 4957,
      "Ġtubules": 4958,
      "Ġherein": 4959,
      "Ġ61": 4960,
      "Ġnor": 4961,
      "Ġperit": 4962,
      "aw": 4963,
      "Ġschwann": 4964,
      "nar": 4965,
      "Ġgiemsa": 4966,
      "ids": 4967,
      "ectin": 4968,
      "Ġgemcitabine": 4969,
      "Ġmastectomy": 4970,
      "Ġ59": 4971,
      "Ġreflux": 4972,
      "roscopic": 4973,
      "esterone": 4974,
      "imes": 4975,
      "Ġinfiltrative": 4976,
      "men": 4977,
      "Ġbecome": 4978,
      "nd": 4979,
      "ustr": 4980,
      "Ġstable": 4981,
      "rotective": 4982,
      "Ġluad": 4983,
      "ape": 4984,
      "ble": 4985,
      "Ġappeared": 4986,
      "Ġdirectly": 4987,
      "Ġparas": 4988,
      "nec": 4989,
      "Ġsoc": 4990,
      "Ġadnex": 4991,
      "Ġfal": 4992,
      "Ġsequence": 4993,
      "ocation": 4994,
      "Ġalg": 4995,
      "ser": 4996,
      "clinical": 4997,
      "Ġparts": 4998,
      "Ġprolong": 4999,
      "Ġexperiments": 5000,
      "Ġpossibly": 5001,
      "Ġpauc": 5002,
      "Ġlinear": 5003,
      "Ġobstruction": 5004,
      "Ġihc": 5005,
      "hens": 5006,
      "Ġdegrees": 5007,
      "Ġread": 5008,
      "Ġassociations": 5009,
      "59": 5010,
      "ril": 5011,
      "Ġclosely": 5012,
      "Ġneurolog": 5013,
      "Ġdest": 5014,
      "Ġmurine": 5015,
      "Ġ68": 5016,
      "Ġbronchial": 5017,
      "Ġcx": 5018,
      "Ġanus": 5019,
      "otide": 5020,
      "Ġfacilit": 5021,
      "Ġconcern": 5022,
      "Ġdors": 5023,
      "Ġmedicine": 5024,
      "Ġgamma": 5025,
      "Ġviability": 5026,
      "Ġinjected": 5027,
      "illed": 5028,
      "Ġuntil": 5029,
      "Ġtransf": 5030,
      "Ġgenotype": 5031,
      "Ġregulatory": 5032,
      "ozyg": 5033,
      "Ġbir": 5034,
      "Ġembryonic": 5035,
      "Ġcirrhosis": 5036,
      "Ġcapacity": 5037,
      "Ġprimarily": 5038,
      "ias": 5039,
      "olip": 5040,
      "Ġrupt": 5041,
      "Ġworldwide": 5042,
      "tw": 5043,
      "002": 5044,
      "Ġprostatectomy": 5045,
      "otype": 5046,
      "ontaneous": 5047,
      "median": 5048,
      "Ġiga": 5049,
      "enhanced": 5050,
      "Ġfoot": 5051,
      "Ġcharacterize": 5052,
      "Ġinteresting": 5053,
      "Ġadenomatous": 5054,
      "ietic": 5055,
      "occ": 5056,
      "plement": 5057,
      "Ġcel": 5058,
      "oscc": 5059,
      "Ġmediated": 5060,
      "iating": 5061,
      "Ġmicrog": 5062,
      "Ġrelapse": 5063,
      "Ġgranuloma": 5064,
      "ires": 5065,
      "Ġprecursor": 5066,
      "Ġmax": 5067,
      "Ġvalidated": 5068,
      "Ġintraperitoneal": 5069,
      "Ġosteophyt": 5070,
      "guided": 5071,
      "muc": 5072,
      "Ġiso": 5073,
      "Ġpredictors": 5074,
      "Ġdominant": 5075,
      "Ġpretreatment": 5076,
      "rotizing": 5077,
      "Ġspontaneous": 5078,
      "mp": 5079,
      "environment": 5080,
      "ologists": 5081,
      "dp": 5082,
      "atible": 5083,
      "76": 5084,
      "Ġsolitary": 5085,
      "Ġcytokine": 5086,
      "Ġseparate": 5087,
      "oglandular": 5088,
      "number": 5089,
      "Ġmultid": 5090,
      "Ġpregnancy": 5091,
      "Ġclar": 5092,
      "Ġovaries": 5093,
      "Ġpari": 5094,
      "Ġjap": 5095,
      "Ġmaternal": 5096,
      "Ġlargely": 5097,
      "mir": 5098,
      "Ġhelpful": 5099,
      "amide": 5100,
      "trib": 5101,
      "Ġ2010": 5102,
      "Ġoriginal": 5103,
      "Ġge": 5104,
      "ecting": 5105,
      "ologies": 5106,
      "Ġforearm": 5107,
      "Ġspermat": 5108,
      "Ġintrat": 5109,
      "Ġprogesterone": 5110,
      "Ġdiscr": 5111,
      "54": 5112,
      "Ġintraoperative": 5113,
      "Ġhs": 5114,
      "ometric": 5115,
      "ronous": 5116,
      "Ġcompre": 5117,
      "Ġprediction": 5118,
      "weighted": 5119,
      "Ġpediatric": 5120,
      "undred": 5121,
      "uous": 5122,
      "Ġmust": 5123,
      "Ġvacuol": 5124,
      "Ġaberrant": 5125,
      "ymptomatic": 5126,
      "iomas": 5127,
      "opsy": 5128,
      "Ġsuv": 5129,
      "Ġpancreatitis": 5130,
      "Ġverified": 5131,
      "Ġfamil": 5132,
      "orith": 5133,
      "Ġrib": 5134,
      "Ġconsum": 5135,
      "Ġattenuated": 5136,
      "Ġdate": 5137,
      "Ġneurons": 5138,
      "Ġrandomized": 5139,
      "Ġdesigned": 5140,
      "Ġalgorith": 5141,
      "Ġtc": 5142,
      "Ġameric": 5143,
      "max": 5144,
      "tain": 5145,
      "Ġcomprehens": 5146,
      "Ġanaplastic": 5147,
      "Ġcontained": 5148,
      "malign": 5149,
      "Ġmanifestations": 5150,
      "Ġdent": 5151,
      "Ġevident": 5152,
      "Ġinterface": 5153,
      "Ġcomparable": 5154,
      "Ġparietal": 5155,
      "Ġheterogeneity": 5156,
      "Ġvary": 5157,
      "Ġnear": 5158,
      "ices": 5159,
      "Ġanc": 5160,
      "comit": 5161,
      "74": 5162,
      "Ġpartially": 5163,
      "Ġaction": 5164,
      "icin": 5165,
      "Ġhypoxia": 5166,
      "oglobulin": 5167,
      "Ġdisplayed": 5168,
      "Ġsir": 5169,
      "Ġsaline": 5170,
      "Ġdoma": 5171,
      "Ġearl": 5172,
      "icles": 5173,
      "rium": 5174,
      "genic": 5175,
      "thral": 5176,
      "ication": 5177,
      "Ġlymphomas": 5178,
      "Ġmism": 5179,
      "Ġtestis": 5180,
      "Ġventricle": 5181,
      "Ġosteophytes": 5182,
      "Ġ96": 5183,
      "Ġresponsible": 5184,
      "ki": 5185,
      "Ġthickening": 5186,
      "Ġconsisted": 5187,
      "Ġterat": 5188,
      "ifically": 5189,
      "Ġsubjected": 5190,
      "Ġful": 5191,
      "Ġexperienced": 5192,
      "inated": 5193,
      "Ġintravenous": 5194,
      "Ġself": 5195,
      "Ġinfectious": 5196,
      "Ġsufficient": 5197,
      "acr": 5198,
      "uption": 5199,
      "Ġconcomit": 5200,
      "inot": 5201,
      "Ġasc": 5202,
      "Ġcytotoxicity": 5203,
      "58": 5204,
      "head": 5205,
      "iii": 5206,
      "Ġqual": 5207,
      "Ġformal": 5208,
      "Ġsearch": 5209,
      "Ġcategory": 5210,
      "Ġratios": 5211,
      "control": 5212,
      "ering": 5213,
      "Ġfar": 5214,
      "Ġpresents": 5215,
      "51": 5216,
      "Ġforty": 5217,
      "Ġseems": 5218,
      "Ġasymptomatic": 5219,
      "Ġrob": 5220,
      "Ġhumans": 5221,
      "Ġvalidation": 5222,
      "hepat": 5223,
      "Ġserve": 5224,
      "Ġcrc": 5225,
      "Ġincidental": 5226,
      "Ġsecretory": 5227,
      "Ġthrombus": 5228,
      "Ġconcomitant": 5229,
      "Ġpathologists": 5230,
      "ultaneous": 5231,
      "Ġcruc": 5232,
      "Ġquestion": 5233,
      "Ġcomplication": 5234,
      "Ġmicroenvironment": 5235,
      "Ġaccept": 5236,
      "Ġdetecting": 5237,
      "Ġyounger": 5238,
      "els": 5239,
      "Ġchallenging": 5240,
      "avage": 5241,
      "Ġreconstruction": 5242,
      "Ġsimultaneous": 5243,
      "Ġexpand": 5244,
      "Ġmitf": 5245,
      "Ġmimic": 5246,
      "Ġdrs": 5247,
      "igens": 5248,
      "Ġexclus": 5249,
      "Ġtert": 5250,
      "Ġâ": 5251,
      "Ġconnective": 5252,
      "Ġpm": 5253,
      "Ġhypers": 5254,
      "92": 5255,
      "Ġspong": 5256,
      "Ġcapillary": 5257,
      "Ġdissem": 5258,
      "Ġcolum": 5259,
      "Ġunit": 5260,
      "Ġrecovery": 5261,
      "Ġmismatch": 5262,
      "Ġvitamin": 5263,
      "Ġmesenteric": 5264,
      "Ġdouble": 5265,
      "cg": 5266,
      "98": 5267,
      "iap": 5268,
      "Ġhundred": 5269,
      "Ġregimen": 5270,
      "Ġmyocardial": 5271,
      "istant": 5272,
      "ythem": 5273,
      "bal": 5274,
      "Ġpredictor": 5275,
      "stream": 5276,
      "96": 5277,
      "Ġaffecting": 5278,
      "Ġnanop": 5279,
      "Ġconstruct": 5280,
      "Ġyielded": 5281,
      "Ġproven": 5282,
      "Ġcontents": 5283,
      "Ġmicros": 5284,
      "pdac": 5285,
      "Ġrabbits": 5286,
      "Ġcalcification": 5287,
      "Ġfibroblasts": 5288,
      "Ġinvolves": 5289,
      "Ġhepatocyte": 5290,
      "Ġfavorable": 5291,
      "93": 5292,
      "Ġjapan": 5293,
      "imentin": 5294,
      "cells": 5295,
      "Ġacet": 5296,
      "orption": 5297,
      "Ġpressure": 5298,
      "Ġaged": 5299,
      "Ġselection": 5300,
      "Ġaspects": 5301,
      "ifying": 5302,
      "ĠâĢľ": 5303,
      "Ġwist": 5304,
      "Ġlogistic": 5305,
      "Ġdocumented": 5306,
      "Ġeyes": 5307,
      "escc": 5308,
      "odes": 5309,
      "Ġmeasurements": 5310,
      "pol": 5311,
      "Ġpod": 5312,
      "ounts": 5313,
      "Ġdox": 5314,
      "Ġmarg": 5315,
      "Ġischemic": 5316,
      "Ġacquired": 5317,
      "Ġpsa": 5318,
      "neoplastic": 5319,
      "ie": 5320,
      "Ġerythem": 5321,
      "olytic": 5322,
      "earing": 5323,
      "Ġexcess": 5324,
      "malignant": 5325,
      "Ġendocrine": 5326,
      "Ġtyrosine": 5327,
      "Ġmicroarray": 5328,
      "Ġspecifically": 5329,
      "Ġsomet": 5330,
      "Ġleukocytes": 5331,
      "Ġsampling": 5332,
      "Ġsynapt": 5333,
      "Ġothers": 5334,
      "ls": 5335,
      "otoxicity": 5336,
      "rp": 5337,
      "otherap": 5338,
      "Ġcholesterol": 5339,
      "Ġphosphat": 5340,
      "Ġconflu": 5341,
      "Ġcho": 5342,
      "Ġcultures": 5343,
      "Ġcompatible": 5344,
      "Ġmart": 5345,
      "Ġmec": 5346,
      "ln": 5347,
      "omatic": 5348,
      "Ġpast": 5349,
      "ophysin": 5350,
      "Ġcultured": 5351,
      "Ġlatter": 5352,
      "Ġprogram": 5353,
      "ruc": 5354,
      "rost": 5355,
      "ested": 5356,
      "Ġmap": 5357,
      "Ġimmunohistochemically": 5358,
      "Ġadmixed": 5359,
      "astruct": 5360,
      "Ġ71": 5361,
      "Ġwistar": 5362,
      "Ġmarginal": 5363,
      "Ġ92": 5364,
      "shifted": 5365,
      "Ġvimentin": 5366,
      "Ġplate": 5367,
      "Ġaspect": 5368,
      "Ġgerminal": 5369,
      "Ġlipoma": 5370,
      "rovers": 5371,
      "Ġflexure": 5372,
      "Ġuntreated": 5373,
      "Ġdefinite": 5374,
      "Ġsmaller": 5375,
      "Ġsynovial": 5376,
      "Ġhypothesis": 5377,
      "Ġcontrovers": 5378,
      "Ġanticancer": 5379,
      "otal": 5380,
      "Ġplan": 5381,
      "Ġsquamoglandular": 5382,
      "Ġcompos": 5383,
      "Ġtranscriptional": 5384,
      "Ġ83": 5385,
      "Ġnanopartic": 5386,
      "cp": 5387,
      "Ġcin": 5388,
      "Ġacross": 5389,
      "Ġdeficiency": 5390,
      "Ġchemical": 5391,
      "exist": 5392,
      "olve": 5393,
      "Ġnort": 5394,
      "oper": 5395,
      "Ġ88": 5396,
      "Ġindependently": 5397,
      "Ġappendicitis": 5398,
      "acet": 5399,
      "elines": 5400,
      "Ġgon": 5401,
      "Ġphysical": 5402,
      "Ġinvestigations": 5403,
      "138": 5404,
      "egfr": 5405,
      "Ġseverely": 5406,
      "alities": 5407,
      "94": 5408,
      "romat": 5409,
      "Ġsometimes": 5410,
      "cipl": 5411,
      "Ġantitumor": 5412,
      "Ġdermatopathology": 5413,
      "Ġrecommend": 5414,
      "Ġrelevance": 5415,
      "Ġrapidly": 5416,
      "Ġdiffus": 5417,
      "Ġthoracic": 5418,
      "Ġsynaptophysin": 5419,
      "Ġdegenerative": 5420,
      "Ġhemorrhagic": 5421,
      "Ġreliable": 5422,
      "two": 5423,
      "Ġgenerated": 5424,
      "aceous": 5425,
      "Ġexcell": 5426,
      "Ġsupplement": 5427,
      "Ġimmunoglobulin": 5428,
      "metast": 5429,
      "Ġavoid": 5430,
      "Ġretroper": 5431,
      "Ġcrucial": 5432,
      "Ġtnm": 5433,
      "Ġdefects": 5434,
      "als": 5435,
      "bac": 5436,
      "Ġoccasionally": 5437,
      "Ġrepe": 5438,
      "ellow": 5439,
      "nsclc": 5440,
      "anol": 5441,
      "fish": 5442,
      "acytic": 5443,
      "Ġbrown": 5444,
      "Ġinsight": 5445,
      "Ġdemographic": 5446,
      "Ġprepared": 5447,
      "Ġantigens": 5448,
      "ondral": 5449,
      "mus": 5450,
      "Ġlncr": 5451,
      "Ġreason": 5452,
      "Ġeas": 5453,
      "Ġmedull": 5454,
      "Ġverruc": 5455,
      "Ġdifferentially": 5456,
      "ley": 5457,
      "Ġstep": 5458,
      "Ġexce": 5459,
      "Ġhematopoietic": 5460,
      "Ġball": 5461,
      "Ġhypertrophic": 5462,
      "follicular": 5463,
      "iding": 5464,
      "Ġparotid": 5465,
      "Ġconfined": 5466,
      "Ġshorter": 5467,
      "urb": 5468,
      "Ġfemoral": 5469,
      "Ġintern": 5470,
      "Ġ69": 5471,
      "Ġlichenoid": 5472,
      "Ġrhabd": 5473,
      "Ġcer": 5474,
      "adj": 5475,
      "Ġperfor": 5476,
      "Ġmorphologically": 5477,
      "Ġnests": 5478,
      "Ġvaginal": 5479,
      "Ġsclerosing": 5480,
      "ï¿½ï¿½ï¿½ï¿½": 5481,
      "king": 5482,
      "Ġwt": 5483,
      "Ġnational": 5484,
      "Ġdelayed": 5485,
      "Ġmyxoid": 5486,
      "Ġexcellent": 5487,
      "Ġathe": 5488,
      "Ġdebr": 5489,
      "Ġguidelines": 5490,
      "cancer": 5491,
      "ithiasis": 5492,
      "wing": 5493,
      "Ġensure": 5494,
      "vium": 5495,
      "Ġultrastruct": 5496,
      "Ġwhom": 5497,
      "Ġ78": 5498,
      "ding": 5499,
      "Ġfist": 5500,
      "Ġranged": 5501,
      "litaxel": 5502,
      "Ġ2000": 5503,
      "Ġrelation": 5504,
      "Ġempl": 5505,
      "Ġmeans": 5506,
      "Ġdynamic": 5507,
      "ergy": 5508,
      "Ġrepeated": 5509,
      "97": 5510,
      "Ġnipple": 5511,
      "Ġkeratinocytes": 5512,
      "Ġinfiltrates": 5513,
      "Ġrecip": 5514,
      "Ġconsisting": 5515,
      "Ġamn": 5516,
      "Ġemission": 5517,
      "Ġwnt": 5518,
      "surgical": 5519,
      "sequ": 5520,
      "Ġech": 5521,
      "rogl": 5522,
      "Ġheav": 5523,
      "Ġmodalities": 5524,
      "raph": 5525,
      "Ġrearrangement": 5526,
      "Ġcycles": 5527,
      "Ġablation": 5528,
      "Ġbreak": 5529,
      "Ġnervous": 5530,
      "Ġfed": 5531,
      "Ġmatched": 5532,
      "sev": 5533,
      "Ġancillary": 5534,
      "ces": 5535,
      "Ġsecretion": 5536,
      "Ġdebris": 5537,
      "body": 5538,
      "Ġobservations": 5539,
      "iting": 5540,
      "Ġflap": 5541,
      "dna": 5542,
      "Ġverte": 5543,
      "Ġ73": 5544,
      "Ġprobably": 5545,
      "rate": 5546,
      "Ġsignature": 5547,
      "Ġmethyl": 5548,
      "Ġmesang": 5549,
      "Ġtrue": 5550,
      "Ġarterial": 5551,
      "Ġpromote": 5552,
      "mn": 5553,
      "amy": 5554,
      "Ġsusceptibility": 5555,
      "Ġmyomet": 5556,
      "ton": 5557,
      "Ġnail": 5558,
      "Ġpoints": 5559,
      "Ġmeasuring": 5560,
      "Ġ76": 5561,
      "117": 5562,
      "Ġrecurrences": 5563,
      "ximab": 5564,
      "Ġirrit": 5565,
      "omatosis": 5566,
      "mark": 5567,
      "ardia": 5568,
      "becular": 5569,
      "Ġmicror": 5570,
      "Ġpasd": 5571,
      "Ġane": 5572,
      "Ġgms": 5573,
      "Ġlargest": 5574,
      "embedded": 5575,
      "olysis": 5576,
      "Ġlabeling": 5577,
      "Ġextracted": 5578,
      "Ġamelior": 5579,
      "crt": 5580,
      "Ġalbumin": 5581,
      "jun": 5582,
      "Ġregist": 5583,
      "Ġmirnas": 5584,
      "Ġutility": 5585,
      "Ġsarcomas": 5586,
      "ars": 5587,
      "Ġfully": 5588,
      "Ġparak": 5589,
      "Ġleads": 5590,
      "Ġdesm": 5591,
      "Ġcandidate": 5592,
      "ivocal": 5593,
      "Ġneg": 5594,
      "ogene": 5595,
      "Ġminimally": 5596,
      "Ġcomprehensive": 5597,
      "uracil": 5598,
      "Ġstructural": 5599,
      "Ġigm": 5600,
      "Ġreporting": 5601,
      "Ġcontinuous": 5602,
      "Ġparenchymal": 5603,
      "91": 5604,
      "Ġobservation": 5605,
      "Ġsubchondral": 5606,
      "Ġvenous": 5607,
      "Ġmatter": 5608,
      "bcs": 5609,
      "uria": 5610,
      "Ġinclusions": 5611,
      "Ġoptions": 5612,
      "Ġ2016": 5613,
      "Ġearlier": 5614,
      "Ġselective": 5615,
      "enter": 5616,
      "Ġindicates": 5617,
      "Ġconfluent": 5618,
      "Ġultrasonography": 5619,
      "mr": 5620,
      "Ġfold": 5621,
      "Ġ,": 5622,
      "Ġgc": 5623,
      "Ġ93": 5624,
      "Ġrequires": 5625,
      "Ġdependent": 5626,
      "Ġexpressing": 5627,
      "Ġingu": 5628,
      "Ġextran": 5629,
      "Ġadip": 5630,
      "Ġras": 5631,
      "Ġprepar": 5632,
      "Ġfollicle": 5633,
      "Ġhyaline": 5634,
      "bcc": 5635,
      "ensive": 5636,
      "laden": 5637,
      "Ġuv": 5638,
      "Ġconcord": 5639,
      "ogram": 5640,
      "tries": 5641,
      "Ġformed": 5642,
      "ogranin": 5643,
      "Ġseb": 5644,
      "Ġbo": 5645,
      "Ġcountries": 5646,
      "Ġakt": 5647,
      "Ġsuppression": 5648,
      "Ġpathologist": 5649,
      "Ġ1990": 5650,
      "Ġbranc": 5651,
      "Ġintraductal": 5652,
      "Ġsci": 5653,
      "Ġpredomin": 5654,
      "Ġotherwise": 5655,
      "generation": 5656,
      "Ġaccess": 5657,
      "hs": 5658,
      "artil": 5659,
      "ematous": 5660,
      "Ġemploy": 5661,
      "Ġaccompanying": 5662,
      "Ġcmv": 5663,
      "oepithelial": 5664,
      "Ġmultic": 5665,
      "Ġprevention": 5666,
      "aryng": 5667,
      "Ġsynthesis": 5668,
      "Ġgyn": 5669,
      "Ġlinked": 5670,
      "Ġhb": 5671,
      "Ġsupports": 5672,
      "hl": 5673,
      "Ġsporad": 5674,
      "isa": 5675,
      "Ġlps": 5676,
      "hep": 5677,
      "Ġclearly": 5678,
      "Ġchi": 5679,
      "Ġimplications": 5680,
      "used": 5681,
      "Ġload": 5682,
      "Ġunderstood": 5683,
      "Ġ86": 5684,
      "high": 5685,
      "Ġ94": 5686,
      ").-": 5687,
      "Ġcharacterization": 5688,
      "Ġprolonged": 5689,
      "Ġpure": 5690,
      "oration": 5691,
      "Ġorally": 5692,
      "mes": 5693,
      "Ġrecr": 5694,
      "Ġcholangi": 5695,
      "Ġhypersensitivity": 5696,
      "eper": 5697,
      "derly": 5698,
      "Ġfund": 5699,
      "hepatitis": 5700,
      "Ġlayers": 5701,
      "Ġoncogenic": 5702,
      "ging": 5703,
      "Ġfalse": 5704,
      "arb": 5705,
      "Ġidentifying": 5706,
      "Ġ87": 5707,
      "ocomp": 5708,
      "Ġoverexpressed": 5709,
      "Ġfrontal": 5710,
      "Ġerosion": 5711,
      "Ġkary": 5712,
      "Ġifn": 5713,
      "Ġnk": 5714,
      "Ġdiffusion": 5715,
      "Ġglobal": 5716,
      "Ġgre": 5717,
      "Ġigf": 5718,
      "Ġvilli": 5719,
      "Ġconclude": 5720,
      "rosarcoma": 5721,
      "Ġmonitoring": 5722,
      "Ġnewly": 5723,
      "Ġshifted": 5724,
      "Ġhaem": 5725,
      "Ġchemoradiation": 5726,
      "Ġuncertain": 5727,
      "jcc": 5728,
      "Ġ2015": 5729,
      "Ġfox": 5730,
      "comp": 5731,
      "ych": 5732,
      "Ġsystematic": 5733,
      "Ġchromogranin": 5734,
      "Ġpall": 5735,
      "Ġgel": 5736,
      "Ġnut": 5737,
      "Ġattrib": 5738,
      "fa": 5739,
      "cytoplasmic": 5740,
      "abeled": 5741,
      "Ġefficient": 5742,
      "oreg": 5743,
      "Ġcro": 5744,
      "abil": 5745,
      "Ġdeletion": 5746,
      "agon": 5747,
      "Ġccl": 5748,
      "Ġcorneal": 5749,
      "Ġoesophageal": 5750,
      "Ġpeptide": 5751,
      "actic": 5752,
      "Ġcoron": 5753,
      "adjusted": 5754,
      "omyel": 5755,
      "Ġinoc": 5756,
      "Ġdetailed": 5757,
      "upl": 5758,
      "Ġslow": 5759,
      "Ġwhose": 5760,
      "Ġdiscussion": 5761,
      "bronchial": 5762,
      "Ġparticipants": 5763,
      "Ġtopical": 5764,
      "Ġinguinal": 5765,
      "Ġscale": 5766,
      "Ġautophag": 5767,
      "Ġemt": 5768,
      "empt": 5769,
      "Ġ2012": 5770,
      "Ġradiographic": 5771,
      "Ġdilated": 5772,
      "Ġcolumnar": 5773,
      "Ġ91": 5774,
      "Ġgynec": 5775,
      "ipot": 5776,
      "Ġaug": 5777,
      "Ġelderly": 5778,
      "Ġcheck": 5779,
      "Ġsteato": 5780,
      "Ġ77": 5781,
      "Ġnext": 5782,
      "Ġoment": 5783,
      "Ġimmunotherapy": 5784,
      "Ġretin": 5785,
      "Ġ84": 5786,
      "omatoid": 5787,
      "ypical": 5788,
      "phyl": 5789,
      "hp": 5790,
      "Ġ82": 5791,
      "gc": 5792,
      "opa": 5793,
      "Ġdeeper": 5794,
      "inger": 5795,
      "Ġextranodal": 5796,
      "Ġsurge": 5797,
      "ovium": 5798,
      "Ġimpair": 5799,
      "Ġformalin": 5800,
      "Ġapproved": 5801,
      "Ġbacteria": 5802,
      "infected": 5803,
      "Ġoropharyngeal": 5804,
      "Ġbud": 5805,
      "Ġ81": 5806,
      "Ġimplicated": 5807,
      "Ġserv": 5808,
      "Ġcov": 5809,
      "Ġacanth": 5810,
      "Ġdegenerated": 5811,
      "Ġgastrectomy": 5812,
      "Ġhipp": 5813,
      "activated": 5814,
      "Ġpolymorphism": 5815,
      "Ġ74": 5816,
      "iscipl": 5817,
      "apsulated": 5818,
      "Ġ2013": 5819,
      "Ġmda": 5820,
      "Ġsteatohepatitis": 5821,
      "ancing": 5822,
      "Ġthyroidectomy": 5823,
      "Ġwarrant": 5824,
      "Ġappendectomy": 5825,
      "Ġcyp": 5826,
      "Ġinhibitory": 5827,
      "Ġcomparing": 5828,
      "Ġballoon": 5829,
      "Ġconjunct": 5830,
      "Ġprogen": 5831,
      "Ġview": 5832,
      "Ġoptim": 5833,
      "Ġmeningioma": 5834,
      "sup": 5835,
      "Ġincor": 5836,
      "Ġstates": 5837,
      "akt": 5838,
      "Ġmesothel": 5839,
      "olob": 5840,
      "Ġdigital": 5841,
      "Ġdiffusely": 5842,
      "Ġmirna": 5843,
      "isciplinary": 5844,
      "Ġupregulation": 5845,
      "Ġinternational": 5846,
      "Ġneurofib": 5847,
      "Ġkidneys": 5848,
      "Ġbiology": 5849,
      "ergic": 5850,
      "astoma": 5851,
      "rier": 5852,
      "Ġexplored": 5853,
      "Ġoverlying": 5854,
      "anine": 5855,
      "dm": 5856,
      "bcl": 5857,
      "Ġvariation": 5858,
      "Ġdorsal": 5859,
      "Ġdeplet": 5860,
      "Ġinduces": 5861,
      "Ġconsumption": 5862,
      "isp": 5863,
      "Ġcomplement": 5864,
      "four": 5865,
      "Ġrhe": 5866,
      "Ġoxide": 5867,
      "Ġsun": 5868,
      "inese": 5869,
      "Ġarise": 5870,
      "alveolar": 5871,
      "ella": 5872,
      "level": 5873,
      "Ġsa": 5874,
      "Ġ2014": 5875,
      "Ġ2003": 5876,
      "Ġocular": 5877,
      "Ġneutrophilic": 5878,
      "uoden": 5879,
      "resistant": 5880,
      "Ġpp": 5881,
      "Ġquadrant": 5882,
      "Ġregulated": 5883,
      "ductive": 5884,
      "Ġcorrelations": 5885,
      "ucible": 5886,
      "Ġ89": 5887,
      "odular": 5888,
      "ouracil": 5889,
      "Ġreducing": 5890,
      "Ġretinal": 5891,
      "Ġcatal": 5892,
      "Ġcontrolled": 5893,
      "Ġimmunostained": 5894,
      "organisms": 5895,
      "Ġattempt": 5896,
      "Ġorganization": 5897,
      "Ġoption": 5898,
      "Ġpara": 5899,
      "ifact": 5900,
      "Ġradiograph": 5901,
      "Ġcomprised": 5902,
      "Ġ2009": 5903,
      "Ġstrains": 5904,
      "Ġoval": 5905,
      "Ġimplantation": 5906,
      "son": 5907,
      "oe": 5908,
      "Ġhodgkin": 5909,
      "Ġoccup": 5910,
      "oregional": 5911,
      "Ġdual": 5912,
      "Ġchinese": 5913,
      "Ġhemod": 5914,
      "Ġcrib": 5915,
      "Ġla": 5916,
      "Ġpil": 5917,
      "Ġexon": 5918,
      "inine": 5919,
      "Ġrepeat": 5920,
      "phosph": 5921,
      "Ġcongest": 5922,
      "Ġtobac": 5923,
      "Ġorbital": 5924,
      "Ġtobacco": 5925,
      "arse": 5926,
      "Ġtransbronchial": 5927,
      "Ġlocoregional": 5928,
      "ferent": 5929,
      "Ġarrest": 5930,
      "Ġartifact": 5931,
      "Ġpool": 5932,
      "ced": 5933,
      "Ġatl": 5934,
      "Ġhypolob": 5935,
      "iosis": 5936,
      "Ġgrowing": 5937,
      "Ġ2011": 5938,
      "003": 5939,
      "Ġinterfer": 5940,
      "Ġadnexal": 5941,
      "igned": 5942,
      "itinib": 5943,
      "Ġcarcinoid": 5944,
      "Ġanatomic": 5945,
      "Ġdomain": 5946,
      "Ġmyofib": 5947,
      "zard": 5948,
      "Ġeuro": 5949,
      "ame": 5950,
      "Ġiss": 5951,
      "Ġsheets": 5952,
      "ots": 5953,
      "encephal": 5954,
      "Ġuc": 5955,
      "Ġparat": 5956,
      "Ġminim": 5957,
      "Ġmnf": 5958,
      "Ġfast": 5959,
      "opharyngeal": 5960,
      "Ġnonspecific": 5961,
      "Ġdiffer": 5962,
      "Ġleiomyoma": 5963,
      "Ġpag": 5964,
      "Ġautophagy": 5965,
      "raining": 5966,
      "Ġinsufficient": 5967,
      "Ġburden": 5968,
      "omal": 5969,
      "Ġclassic": 5970,
      "Ġdownregulated": 5971,
      "Ġseminal": 5972,
      "Ġultrastructural": 5973,
      "Ġcomprise": 5974,
      "Ġdifferentiating": 5975,
      "Ġtreating": 5976,
      "Ġsynovium": 5977,
      "urnation": 5978,
      "Ġcribriform": 5979,
      "utions": 5980,
      "Ġeburnation": 5981,
      "Ġcytogenetics": 5982,
      "Ġsporadic": 5983,
      "Ġpromoted": 5984,
      "iliary": 5985,
      "Ġinitiation": 5986,
      "Ġnanoparticles": 5987,
      "Ġscans": 5988,
      "aped": 5989,
      "Ġceliac": 5990,
      "Ġann": 5991,
      "Ġmeasurement": 5992,
      "Ġanemia": 5993,
      "rank": 5994,
      "Ġadvant": 5995,
      "Ġglobally": 5996,
      "Ġdm": 5997,
      "Ġsurviv": 5998,
      "Ġtrauma": 5999,
      "Ġrespect": 6000,
      "Ġpsori": 6001,
      "Ġfn": 6002,
      "Ġextended": 6003,
      "Ġlymphoplasm": 6004,
      "Ġproduce": 6005,
      "romet": 6006,
      "|>)": 6007,
      "Ġcea": 6008,
      "600": 6009,
      "Ġalgorithm": 6010,
      "oneph": 6011,
      "eling": 6012,
      "Ġcholel": 6013,
      "Ġodont": 6014,
      "otherapeutic": 6015,
      "Ġcapill": 6016,
      "Ġfluor": 6017,
      "Ġsynch": 6018,
      "Ġsulf": 6019,
      "Ġsomatic": 6020,
      "Ġoperating": 6021,
      "aired": 6022,
      "Ġprospectively": 6023,
      "Ġgold": 6024,
      "Ġlys": 6025,
      "Ġden": 6026,
      "Ġproblem": 6027,
      "Ġendomy": 6028,
      "Ġfewer": 6029,
      "Ġpfs": 6030,
      "Ġidh": 6031,
      "psy": 6032,
      "bo": 6033,
      "ropath": 6034,
      "ariable": 6035,
      "Ġanastomosis": 6036,
      "asty": 6037,
      "Ġmake": 6038,
      "Ġunf": 6039,
      "Ġpaget": 6040,
      "Ġpolar": 6041,
      "iva": 6042,
      "Ġcomm": 6043,
      "Ġ)": 6044,
      "005": 6045,
      "Ġcholelithiasis": 6046,
      "Ġreprod": 6047,
      "Ġcc": 6048,
      "Ġproportional": 6049,
      "Ġpseudo": 6050,
      "Ġvulvar": 6051,
      "igible": 6052,
      "isted": 6053,
      "Ġ2008": 6054,
      "Ġurine": 6055,
      "Ġcrt": 6056,
      "Ġectopic": 6057,
      "Ġaffects": 6058,
      "Ġsclerotic": 6059,
      "Ġinteractions": 6060,
      "hepatic": 6061,
      "onium": 6062,
      "Ġsr": 6063,
      "eal": 6064,
      "Ġcanal": 6065,
      "cosis": 6066,
      "yr": 6067,
      "mscs": 6068,
      "olin": 6069,
      "ocamp": 6070,
      "Ġhypolobated": 6071,
      "Ġcareful": 6072,
      "Ġsd": 6073,
      "ped": 6074,
      "uth": 6075,
      "Ġsummar": 6076,
      "unc": 6077,
      "osigmoid": 6078,
      "Ġgain": 6079,
      "Ġnormocellular": 6080,
      "scs": 6081,
      "omyelitis": 6082,
      "Ġunderg": 6083,
      "Ġmesangial": 6084,
      "Ġevaluating": 6085,
      "Ġapocrine": 6086,
      "thal": 6087,
      "Ġfigures": 6088,
      "Ġhypertension": 6089,
      "nia": 6090,
      "oprotein": 6091,
      "Ġpolymorphisms": 6092,
      "Ġbeneficial": 6093,
      "Ġcommun": 6094,
      "Ġmodality": 6095,
      "Ġ97": 6096,
      "ector": 6097,
      "ks": 6098,
      "lobular": 6099,
      "Ġcdx": 6100,
      "Ġproducts": 6101,
      "defined": 6102,
      "ients": 6103,
      "ields": 6104,
      "Ġretained": 6105,
      "ellite": 6106,
      "Ġprofiling": 6107,
      "roscopy": 6108,
      "Ġresistant": 6109,
      "Ġsuff": 6110,
      "ocular": 6111,
      "ocyst": 6112,
      "Ġretroperitoneal": 6113,
      "hist": 6114,
      "Ġstric": 6115,
      "Ġretri": 6116,
      "Ġmolecule": 6117,
      "Ġglycogen": 6118,
      "Ġamerican": 6119,
      "Ġarrang": 6120,
      "Ġplaque": 6121,
      "Ġnotch": 6122,
      "Ġsuit": 6123,
      "Ġstor": 6124,
      "apping": 6125,
      "Ġremission": 6126,
      "Ġtransfer": 6127,
      "Ġdiscrimin": 6128,
      "Ġinterestingly": 6129,
      "otinib": 6130,
      "Ġdivertic": 6131,
      "np": 6132,
      "sd": 6133,
      "Ġunil": 6134,
      "Ġtrend": 6135,
      "Ġqualitative": 6136,
      "Ġ</=": 6137,
      "oproliferative": 6138,
      "Ġsurrounded": 6139,
      "Ġsham": 6140,
      "Ġlining": 6141,
      "Ġreactions": 6142,
      "Ġblotting": 6143,
      "Ġreferring": 6144,
      "Ġdesmin": 6145,
      "Ġfibrocartil": 6146,
      "Ġeyel": 6147,
      "Ġ79": 6148,
      "Ġatheros": 6149,
      "Ġincom": 6150,
      "Ġspanning": 6151,
      "Ġepigen": 6152,
      "Ġonce": 6153,
      "modified": 6154,
      "Ġded": 6155,
      "Ġsacr": 6156,
      "auc": 6157,
      "Ġcopy": 6158,
      "Ġallograft": 6159,
      "Ġwalls": 6160,
      "quamous": 6161,
      "Ġplace": 6162,
      "Ġcontact": 6163,
      "Ġranging": 6164,
      "mc": 6165,
      "Ġcausing": 6166,
      "Ġlc": 6167,
      "etu": 6168,
      "Ġnecrotizing": 6169,
      "Ġgal": 6170,
      "ocytoma": 6171,
      "Ġthought": 6172,
      "Ġexer": 6173,
      "ovirus": 6174,
      "Ġmacroscopic": 6175,
      "Ġfresh": 6176,
      "Ġluminal": 6177,
      "Ġborderline": 6178,
      "Ġdatas": 6179,
      "Ġimmunosupp": 6180,
      "Ġheavy": 6181,
      "Ġliposarcoma": 6182,
      "Ġtransd": 6183,
      "Ġvulva": 6184,
      "Ġproved": 6185,
      "Ġfailed": 6186,
      "Ġ2017": 6187,
      "Ġrectosigmoid": 6188,
      "ialdehyde": 6189,
      "Ġundergone": 6190,
      "Ġfibrotic": 6191,
      "Ġspaces": 6192,
      "Ġseparately": 6193,
      "oded": 6194,
      "Ġpaper": 6195,
      "Ġremod": 6196,
      "Ġmultidisciplinary": 6197,
      "Ġdefine": 6198,
      "Ġfifty": 6199,
      "Ġincomplet": 6200,
      "Ġsource": 6201,
      "rep": 6202,
      "Ġdonor": 6203,
      "Ġtertiary": 6204,
      "Ġmicrobi": 6205,
      "Ġxenograft": 6206,
      "ulitis": 6207,
      "Ġsacrific": 6208,
      "cluding": 6209,
      "omics": 6210,
      "Ġeac": 6211,
      "Ġdefect": 6212,
      "Ġfever": 6213,
      "Ġtons": 6214,
      "Ġstandardized": 6215,
      "Ġhypertrophy": 6216,
      "Ġmesh": 6217,
      "Ġexpected": 6218,
      "ountered": 6219,
      "Ġmelanocytes": 6220,
      "tenance": 6221,
      "Ġmyeloma": 6222,
      "Ġencountered": 6223,
      "Ġderiv": 6224,
      "Ġgeneration": 6225,
      "Ġtip": 6226,
      "Ġeus": 6227,
      "Ġhence": 6228,
      "Ġrheum": 6229,
      "Ġdfs": 6230,
      "Ġconst": 6231,
      "itoneum": 6232,
      "Ġextensively": 6233,
      "Ġprogenit": 6234,
      "Ġnov": 6235,
      "Ġdisplay": 6236,
      "ystroph": 6237,
      "Ġtb": 6238,
      "Ġmanual": 6239,
      "Ġsmears": 6240,
      "Ġpositron": 6241,
      "Ġmicroc": 6242,
      "Ġcns": 6243,
      "Ġhippocamp": 6244,
      "Ġpin": 6245,
      "pers": 6246,
      "Ġuniform": 6247,
      "Ġ2007": 6248,
      "Ġneither": 6249,
      "Ġgrades": 6250,
      "Ġforehead": 6251,
      ")(": 6252,
      "Ġcounter": 6253,
      "Ġcomprising": 6254,
      "eterm": 6255,
      "Ġdiscont": 6256,
      "Ġinhibiting": 6257,
      "Ġcreatinine": 6258,
      "ortic": 6259,
      "Ġeng": 6260,
      "dt": 6261,
      "Ġregeneration": 6262,
      "etuximab": 6263,
      "Ġfragmented": 6264,
      "Ġmaintenance": 6265,
      "Ġsuperoxide": 6266,
      "sl": 6267,
      "Ġmaintained": 6268,
      "Ġeffectively": 6269,
      "ondialdehyde": 6270,
      "imer": 6271,
      "Ġalteration": 6272,
      "Ġsuspic": 6273,
      "scribed": 6274,
      "Ġhemangioma": 6275,
      "amn": 6276,
      "arcomas": 6277,
      "Ġrepro": 6278,
      "Ġvaluable": 6279,
      "Ġconvers": 6280,
      "Ġentities": 6281,
      "Ġajcc": 6282,
      "izumab": 6283,
      "Ġreplacement": 6284,
      "Ġparakeratosis": 6285,
      "Ġelast": 6286,
      "Ġfibrocartilage": 6287,
      "Ġgf": 6288,
      "omes": 6289,
      "Ġinvolve": 6290,
      "Ġligand": 6291,
      "grow": 6292,
      "Ġeurope": 6293,
      "%-": 6294,
      "iologic": 6295,
      "Ġplant": 6296,
      "mel": 6297,
      "Ġmicrosat": 6298,
      "Ġsebaceous": 6299,
      "wi": 6300,
      "Ġretriev": 6301,
      "Ġlang": 6302,
      "Ġandrogen": 6303,
      "Ġorth": 6304,
      "Ġfeasible": 6305,
      "Ġexcisional": 6306,
      "Ġmembranous": 6307,
      "alk": 6308,
      "Ġexceeding": 6309,
      "Ġht": 6310,
      "Ġmaking": 6311,
      "inant": 6312,
      "ivariable": 6313,
      "Ġendogenous": 6314,
      "Ġmicroorganisms": 6315,
      "Ġaminot": 6316,
      "osus": 6317,
      "Ġsuspicion": 6318,
      "del": 6319,
      "erk": 6320,
      "Ġincorpor": 6321,
      "Ġcontroversial": 6322,
      "vs": 6323,
      "Ġprotection": 6324,
      "004": 6325,
      "Ġaminotrans": 6326,
      "Ġsignet": 6327,
      "hazard": 6328,
      "Ġgonad": 6329,
      "Ġoperative": 6330,
      "esophag": 6331,
      "ancreat": 6332,
      "Ġendomyoc": 6333,
      "Ġreceiver": 6334,
      "five": 6335,
      "Ġdiscontinu": 6336,
      "ropathy": 6337,
      "Ġouter": 6338,
      "Ġregenerative": 6339,
      "Ġpass": 6340,
      "atives": 6341,
      "Ġphysic": 6342,
      "Ġneurological": 6343,
      "Ġregulating": 6344,
      "Ġrecomb": 6345,
      "Ġleth": 6346,
      "Ġalways": 6347,
      "Ġcrohn": 6348,
      "Ġinner": 6349,
      "rd": 6350,
      "Ġrcc": 6351,
      "Ġreflect": 6352,
      "Ġaware": 6353,
      "Ġmix": 6354,
      "Ġdegrad": 6355,
      "Ġphosphatase": 6356,
      "acyt": 6357,
      "Ġlup": 6358,
      "iopathic": 6359,
      "Ġ98": 6360,
      "een": 6361,
      "Ġplur": 6362,
      "formed": 6363,
      "ulum": 6364,
      "Ġdownregulation": 6365,
      "Ġsubepithelial": 6366,
      "Ġlear": 6367,
      "Ġchann": 6368,
      "Ġsmokers": 6369,
      "hal": 6370,
      "Ġdehyd": 6371,
      "Ġcounts": 6372,
      "Ġpor": 6373,
      "Ġlined": 6374,
      "Ġsynchronous": 6375,
      "Ġtail": 6376,
      "otrop": 6377,
      "low": 6378,
      "Ġradio": 6379,
      "Ġmorphometric": 6380,
      "Ġstimulation": 6381,
      "Ġpale": 6382,
      "chrom": 6383,
      "125": 6384,
      "cv": 6385,
      "aline": 6386,
      "Ġmeconium": 6387,
      "isation": 6388,
      "Ġhighlighted": 6389,
      "Ġequal": 6390,
      "mia": 6391,
      "Ġextracts": 6392,
      "Ġglioma": 6393,
      "Ġmalondialdehyde": 6394,
      "Ġlymphoplasmacytic": 6395,
      "Ġcoeff": 6396,
      "Ġdeaths": 6397,
      "hydrox": 6398,
      "Ġdismut": 6399,
      "Ġpaclitaxel": 6400,
      "Ġchoice": 6401,
      "Ġharbor": 6402,
      "Ġtowards": 6403,
      "Ġfind": 6404,
      "Ġmo": 6405,
      "ubicin": 6406,
      "Ġchromosomal": 6407,
      "-(": 6408,
      "Ġodds": 6409,
      "Ġfr": 6410,
      "astric": 6411,
      "Ġevolution": 6412,
      "Ġhla": 6413,
      "Ġcortic": 6414,
      "Ġsodium": 6415,
      "Ġconsequ": 6416,
      "Ġantibiotic": 6417,
      "Ġradiologic": 6418,
      "Ġdownstream": 6419,
      "Ġsubgroups": 6420,
      "Ġdismutase": 6421,
      "Ġhome": 6422,
      "Ġhomogen": 6423,
      "Ġrace": 6424,
      "Ġlscc": 6425,
      "usal": 6426,
      "sr": 6427,
      "Ġson": 6428,
      "pus": 6429,
      "Ġpten": 6430,
      "Ġaqu": 6431,
      "factory": 6432,
      "iety": 6433,
      "Ġbulb": 6434,
      "atypical": 6435,
      "ubular": 6436,
      "Ġobvious": 6437,
      "medi": 6438,
      "Ġeffectiveness": 6439,
      "Ġhif": 6440,
      "Ġgly": 6441,
      "Ġtranslocation": 6442,
      "Ġlarynx": 6443,
      "Ġattenuation": 6444,
      "Ġ99": 6445,
      "encies": 6446,
      "keratosis": 6447,
      "ades": 6448,
      "Ġscreened": 6449,
      "Ġresolution": 6450,
      "Ġoncology": 6451,
      "|>/": 6452,
      "urys": 6453,
      "Ġfistula": 6454,
      "Ġcscc": 6455,
      "Ġseparated": 6456,
      "Ġreproductive": 6457,
      "Ġbrid": 6458,
      "ografts": 6459,
      "Ġpreservation": 6460,
      "yond": 6461,
      "Ġlineage": 6462,
      "Ġprimitive": 6463,
      "Ġcetuximab": 6464,
      "arrow": 6465,
      "Ġtlr": 6466,
      "Ġaer": 6467,
      "Ġging": 6468,
      "Ġcolony": 6469,
      "Ġimmunophenotypic": 6470,
      "Ġlymphadenectomy": 6471,
      "Ġlesional": 6472,
      "Ġsequences": 6473,
      "well": 6474,
      "Ġphenomen": 6475,
      "tnf": 6476,
      "Ġput": 6477,
      "hd": 6478,
      "non": 6479,
      "Ġaxis": 6480,
      "taining": 6481,
      "Ġorganizing": 6482,
      "raction": 6483,
      "section": 6484,
      "Ġtet": 6485,
      "binding": 6486,
      "Ġaccel": 6487,
      "onasal": 6488,
      "Ġadvances": 6489,
      "Ġsinusoidal": 6490,
      "atically": 6491,
      "Ġidiopathic": 6492,
      "hg": 6493,
      "Ġlacking": 6494,
      "ica": 6495,
      "Ġimpaired": 6496,
      "Ġfinger": 6497,
      "Ġbeyond": 6498,
      "Ġimmunod": 6499,
      "imensional": 6500,
      "ejun": 6501,
      "tp": 6502,
      "Ġglioblastoma": 6503,
      "Ġosteomyelitis": 6504,
      "ope": 6505,
      "Ġaz": 6506,
      "Ġexpanded": 6507,
      "Ġmug": 6508,
      "Ġrestricted": 6509,
      "Ġsimil": 6510,
      "Ġimmunophenotype": 6511,
      "pread": 6512,
      "Ġ~": 6513,
      "Ġscarring": 6514,
      "Ġcats": 6515,
      "Ġfluores": 6516,
      "stained": 6517,
      "Ġhistiocytic": 6518,
      "Ġbronchiol": 6519,
      "Ġsupported": 6520,
      "Ġenvironmental": 6521,
      "idespread": 6522,
      "Ġadmitted": 6523,
      "Ġsupra": 6524,
      "Ġintracranial": 6525,
      "Ġsimilarly": 6526,
      "activation": 6527,
      "Ġwidespread": 6528,
      "rays": 6529,
      "enz": 6530,
      "ostomy": 6531,
      "Ġ2005": 6532,
      "Ġrecognition": 6533,
      "lated": 6534,
      "Ġanalog": 6535,
      "Ġblast": 6536,
      "apsular": 6537,
      "Ġallele": 6538,
      "Ġnucleus": 6539,
      "Ġbeliev": 6540,
      "+),": 6541,
      "Ġexact": 6542,
      "acute": 6543,
      "Ġcholest": 6544,
      "Ġaminotransferase": 6545,
      "standard": 6546,
      "ulative": 6547,
      "Ġthymic": 6548,
      "Ġhsp": 6549,
      "Ġlupus": 6550,
      "Ġemployed": 6551,
      "tra": 6552,
      "Ġblack": 6553,
      "Ġesophagectomy": 6554,
      "Ġmiss": 6555,
      "aris": 6556,
      "Ġepigenetic": 6557,
      "Ġdecision": 6558,
      "rins": 6559,
      "Ġinterpreted": 6560,
      "mat": 6561,
      "Ġinvades": 6562,
      "Ġkg": 6563,
      "Ġhypocellular": 6564,
      "Ġpromotes": 6565,
      "asc": 6566,
      "three": 6567,
      "romatosis": 6568,
      "Ġunilateral": 6569,
      "Ġtrigg": 6570,
      "part": 6571,
      "Ġstar": 6572,
      "vd": 6573,
      "analysis": 6574,
      "rane": 6575,
      "Ġodontogenic": 6576,
      "Ġcryst": 6577,
      "Ġantagon": 6578,
      "oxidation": 6579,
      "Ġub": 6580,
      "Ġsuitable": 6581,
      "Ġ%)": 6582,
      "Ġlobules": 6583,
      "Ġfacial": 6584,
      "Ġnearly": 6585,
      "Ġveh": 6586,
      "Ġfeasibility": 6587,
      "Ġtransgenic": 6588,
      "Ġmetastas": 6589,
      "Ġperfusion": 6590,
      "Ġanatom": 6591,
      "Ġprobe": 6592,
      "Ġ2006": 6593,
      "Ġstratified": 6594,
      "myc": 6595,
      "keratin": 6596,
      "raz": 6597,
      "Ġgata": 6598,
      "Ġassigned": 6599,
      "Ġintegr": 6600,
      "Ġconcept": 6601,
      "Ġnrbc": 6602,
      "Ġpluripot": 6603,
      "target": 6604,
      "Ġdietary": 6605,
      "Ġstri": 6606,
      "Ġserious": 6607,
      "Ġoncocytic": 6608,
      "Ġot": 6609,
      "Ġdescribes": 6610,
      "lc": 6611,
      "Ġreversed": 6612,
      "'-": 6613,
      "ulatory": 6614,
      "Ġlimits": 6615,
      "06": 6616,
      "Ġsarcoid": 6617,
      "Ġdystroph": 6618,
      "odys": 6619,
      "Ġintervals": 6620,
      "Ġfasc": 6621,
      "Ġregimens": 6622,
      "Ġattached": 6623,
      "Ġendomyocardium": 6624,
      "Ġoesophag": 6625,
      "Ġmyoepithelial": 6626,
      "Ġscoring": 6627,
      "Ġmultinucle": 6628,
      "Ġcn": 6629,
      "Ġtri": 6630,
      "Ġdetermining": 6631,
      "ofibroma": 6632,
      "Ġstart": 6633,
      "Ġrhabdomy": 6634,
      "Ġfoveolar": 6635,
      "Ġdiar": 6636,
      "Ġsubstantial": 6637,
      "Ġinver": 6638,
      "Ġinsert": 6639,
      "Ġdepletion": 6640,
      "iceal": 6641,
      "Ġpigs": 6642,
      "icuous": 6643,
      "Ġevaluable": 6644,
      "fixed": 6645,
      "Ġeyelid": 6646,
      "Ġcentile": 6647,
      "opausal": 6648,
      "with": 6649,
      "ologous": 6650,
      "Ġcasts": 6651,
      "nit": 6652,
      "Ġlumen": 6653,
      "Ġsymptomatic": 6654,
      "six": 6655,
      "Ġmem": 6656,
      "Ġcoronary": 6657,
      "Ġplaques": 6658,
      "Ġfibr": 6659,
      "Ġmutational": 6660,
      "Ġcardia": 6661,
      "Ġho": 6662,
      "Ġclarify": 6663,
      "coprotein": 6664,
      "oprotective": 6665,
      "Ġga": 6666,
      "rathyroid": 6667,
      "hyp": 6668,
      "ua": 6669,
      "Ġchlor": 6670,
      "Ġsalv": 6671,
      "Ġtoxicities": 6672,
      "Ġelucidate": 6673,
      "Ġcohorts": 6674,
      "Ġnoninvasive": 6675,
      "Ġcategories": 6676,
      "pin": 6677,
      "Ġbax": 6678,
      "Ġisoform": 6679,
      "oplasty": 6680,
      "Ġvaccine": 6681,
      "ecal": 6682,
      "Ġsolution": 6683,
      "focal": 6684,
      "Ġaa": 6685,
      "orer": 6686,
      "Ġema": 6687,
      "blood": 6688,
      "Ġextrap": 6689,
      "linked": 6690,
      "Ġhyperm": 6691,
      "Ġautopsy": 6692,
      "Ġedition": 6693,
      "Ġweakly": 6694,
      "inely": 6695,
      "Ġ500": 6696,
      "Ġventricular": 6697,
      "Ġdevice": 6698,
      "Ġtg": 6699,
      "Ġafb": 6700,
      "Ġvaried": 6701,
      "papillary": 6702,
      "Ġmetallop": 6703,
      "Ġmacrophage": 6704,
      "ruction": 6705,
      "Ġattention": 6706,
      "Ġsteroid": 6707,
      "Ġpublic": 6708,
      "Ġven": 6709,
      "Ġmedullary": 6710,
      "Ġpoorer": 6711,
      "Ġther": 6712,
      "Ġallows": 6713,
      "Ġgenotypes": 6714,
      "iter": 6715,
      "fn": 6716,
      "ozygous": 6717,
      "tion": 6718,
      "Ġplasmacyt": 6719,
      "ontin": 6720,
      "Ġintake": 6721,
      "ota": 6722,
      "Ġfractions": 6723,
      "Ġprevalent": 6724,
      "Ġfer": 6725,
      "Ġneon": 6726,
      "Ġglial": 6727,
      "Ġlimitations": 6728,
      "Ġreceive": 6729,
      "dimensional": 6730,
      "Ġapplications": 6731,
      "Ġhamart": 6732,
      "Ġmidline": 6733,
      "Ġtraining": 6734,
      "Ġcorpus": 6735,
      "Ġsubun": 6736,
      "Ġdistinctive": 6737,
      "Ġtm": 6738,
      "rocytes": 6739,
      "wal": 6740,
      "Ġvarying": 6741,
      "stein": 6742,
      "Ġhydro": 6743,
      "Ġalive": 6744,
      "Ġsccs": 6745,
      "07": 6746,
      "ought": 6747,
      "Ġganglion": 6748,
      "hern": 6749,
      "fluorouracil": 6750,
      "Ġthrombi": 6751,
      "urethral": 6752,
      "Ġsacrificed": 6753,
      "rex": 6754,
      "ractory": 6755,
      "Ġimmunodef": 6756,
      "Ġsought": 6757,
      "Ġfda": 6758,
      "Ġnude": 6759,
      "Ġproviding": 6760,
      "Ġmelanomas": 6761,
      "Ġdestruction": 6762,
      "Ġdetectable": 6763,
      "uly": 6764,
      "Ġsilencing": 6765,
      "Ġquantitation": 6766,
      "Ġmycobacter": 6767,
      "Ġchains": 6768,
      "Ġdl": 6769,
      "rhea": 6770,
      "Ġefficiency": 6771,
      "Ġcurves": 6772,
      "Ġillustr": 6773,
      "Ġcg": 6774,
      "Ġelisa": 6775,
      "Ġthereby": 6776,
      "reshold": 6777,
      "Ġdimin": 6778,
      "Ġbrca": 6779,
      "Ġflav": 6780,
      "Ġsmad": 6781,
      "09": 6782,
      "who": 6783,
      "Ġclinicians": 6784,
      "Ġphenotypes": 6785,
      "Ġextrac": 6786,
      "oxicity": 6787,
      "Ġnic": 6788,
      "Ġedges": 6789,
      "Ġphysiological": 6790,
      "Ġregular": 6791,
      "Ġregulate": 6792,
      "Ġstratification": 6793,
      "Ġdehydrogen": 6794,
      "urable": 6795,
      "iscus": 6796,
      "ump": 6797,
      "Ġeligible": 6798,
      "Ġobstruct": 6799,
      "fir": 6800,
      "Ġsten": 6801,
      "Ġmultivariable": 6802,
      "oglobin": 6803,
      "ÂŃ": 6804,
      "Ġconsidering": 6805,
      "Ġsemin": 6806,
      "Ġteratoma": 6807,
      "Ġliqu": 6808,
      "Ġpreclinical": 6809,
      "Ġ2018": 6810,
      "Ġperme": 6811,
      "Ġpca": 6812,
      "Ġidentical": 6813,
      "Ġtoler": 6814,
      "Ġjun": 6815,
      "Ġprecision": 6816,
      "iative": 6817,
      "onucle": 6818,
      "Ġchemotherapeutic": 6819,
      "Ġneurobl": 6820,
      "nk": 6821,
      "Ġnephrectomy": 6822,
      "Ġrev": 6823,
      "oxic": 6824,
      "Ġvehicle": 6825,
      "Ġpenet": 6826,
      "pp": 6827,
      "Ġconcluded": 6828,
      "Ġatlas": 6829,
      "Ġnose": 6830,
      "Ġnephropathy": 6831,
      "Ġintegrated": 6832,
      "Ġrheumat": 6833,
      "ches": 6834,
      "Ġdro": 6835,
      "Ġpossess": 6836,
      "ihc": 6837,
      "yping": 6838,
      "Ġmicrovascular": 6839,
      "Ġfibroblast": 6840,
      "Ġcry": 6841,
      "Ġpem": 6842,
      "Ġvent": 6843,
      "Ġfamilial": 6844,
      "Ġserosal": 6845,
      "riched": 6846,
      "Ġmalform": 6847,
      "Ġdetermination": 6848,
      "Ġsixty": 6849,
      "Ġfeed": 6850,
      "Ġsupportive": 6851,
      "Ġcongestion": 6852,
      "ochemistry": 6853,
      "Ġgenital": 6854,
      "lip": 6855,
      "deficient": 6856,
      "optotic": 6857,
      "etically": 6858,
      "Ġtransmission": 6859,
      "Ġnitric": 6860,
      "Ġaneurys": 6861,
      "Ġduplication": 6862,
      "smok": 6863,
      "Ġdehydrogenase": 6864,
      "arin": 6865,
      "Ġpk": 6866,
      "utional": 6867,
      "Ġperoxidation": 6868,
      "Ġinhibits": 6869,
      "Ġinterventions": 6870,
      "Ġtun": 6871,
      "heless": 6872,
      "Ġfibroadenoma": 6873,
      "Ġtrache": 6874,
      "Ġcoli": 6875,
      "akes": 6876,
      "Ġdispers": 6877,
      "Ġmedia": 6878,
      "Ġgbm": 6879,
      "Ġdistinguishing": 6880,
      "Ġmandible": 6881,
      "Ġdescription": 6882,
      "Ġnin": 6883,
      "acin": 6884,
      "Ġdevelopmental": 6885,
      "Ġjapanese": 6886,
      "Ġsinonasal": 6887,
      "usions": 6888,
      "Ġdepending": 6889,
      "Ġcapillaries": 6890,
      "atinum": 6891,
      "chol": 6892,
      "Ġlymphadenopathy": 6893,
      "Ġcontin": 6894,
      "inin": 6895,
      "Ġimportantly": 6896,
      "Ġcla": 6897,
      "Ġcac": 6898,
      "arditis": 6899,
      "Ġadenomy": 6900,
      "Ġtransient": 6901,
      "atinib": 6902,
      "Ġligation": 6903,
      "Ġdiagnose": 6904,
      "dc": 6905,
      "rague": 6906,
      "Ġlearning": 6907,
      "Ġfields": 6908,
      "Ġcorrelates": 6909,
      "Ġthreshold": 6910,
      "Ġstorage": 6911,
      "Ġpathogenic": 6912,
      "Ġsensit": 6913,
      "Ġpathologically": 6914,
      "Ġomentum": 6915,
      "Ġdiscovered": 6916,
      "osarcomas": 6917,
      "sub": 6918,
      "ged": 6919,
      "Ġcad": 6920,
      "rene": 6921,
      "Ġafric": 6922,
      "Ġseiz": 6923,
      "08": 6924,
      "Ġbac": 6925,
      "Ġreactivity": 6926,
      "Ġinad": 6927,
      "Ġmanifestation": 6928,
      "Ġpathophys": 6929,
      "Ġocclus": 6930,
      "istance": 6931,
      "Ġbranch": 6932,
      "Ġcre": 6933,
      "Ġvesicles": 6934,
      "Ġbirth": 6935,
      "omycin": 6936,
      "Ġbasaloid": 6937,
      "Ġcathe": 6938,
      "omegal": 6939,
      "Ġintral": 6940,
      "iral": 6941,
      "azole": 6942,
      "Ġmalat": 6943,
      "Ġprevented": 6944,
      "Ġminute": 6945,
      "Ġsu": 6946,
      "ips": 6947,
      "Ġcytos": 6948,
      "Ġquies": 6949,
      "ortical": 6950,
      "Ġrb": 6951,
      "osterone": 6952,
      "uting": 6953,
      "allel": 6954,
      "Ġremodeling": 6955,
      "Ġundert": 6956,
      "Ġinfarction": 6957,
      "Ġresectable": 6958,
      "Ġhaemat": 6959,
      "Ġmyofibrobl": 6960,
      "Ġdemonstrating": 6961,
      "Ġss": 6962,
      "Ġstre": 6963,
      "Ġfna": 6964,
      "Ġamounts": 6965,
      "Ġethanol": 6966,
      "Ġcleared": 6967,
      "Ġballooning": 6968,
      "Ġinnervation": 6969,
      "Ġmisdiagn": 6970,
      "Ġschwannoma": 6971,
      "Ġconcerning": 6972,
      "esity": 6973,
      "Ġchick": 6974,
      "ortem": 6975,
      "Ġreperfusion": 6976,
      "Ġaxon": 6977,
      "Ġsyndrom": 6978,
      "rathyroidal": 6979,
      "Ġdiagnosing": 6980,
      "lymphatic": 6981,
      "Ġestimate": 6982,
      "Ġencapsulated": 6983,
      "ecrosis": 6984,
      "Ġimmuno": 6985,
      "Ġcomparative": 6986,
      "Ġexclude": 6987,
      "Ġsprague": 6988,
      "Ġhydrox": 6989,
      "Ġminutes": 6990,
      "omerase": 6991,
      "icellular": 6992,
      "glucose": 6993,
      "Ġpenile": 6994,
      "Ġpropose": 6995,
      "Ġfacilitate": 6996,
      "Ġmyosin": 6997,
      "Ġsubmucosa": 6998,
      "imet": 6999,
      "Ġdecades": 7000,
      "Ġbed": 7001,
      "Ġgrossly": 7002,
      "Ġconstructed": 7003,
      "Ġmembers": 7004,
      "Ġphenomenon": 7005,
      "ositis": 7006,
      "Ġepile": 7007,
      "Ġconsideration": 7008,
      "Ġaid": 7009,
      "Ġplatinum": 7010,
      "msh": 7011,
      "methyl": 7012,
      "Ġprecise": 7013,
      "orubicin": 7014,
      "Ġregistry": 7015,
      "Ġregardless": 7016,
      "oa": 7017,
      "Ġerk": 7018,
      "Ġparac": 7019,
      "Ġdegradation": 7020,
      "Ġshape": 7021,
      "Ġinterv": 7022,
      "Ġductular": 7023,
      "Ġelevation": 7024,
      "Ġdram": 7025,
      "etin": 7026,
      "cir": 7027,
      "Ġgranules": 7028,
      "Ġconfirmation": 7029,
      "Ġmimick": 7030,
      "Ġtouch": 7031,
      "Ġapical": 7032,
      "Ġmyelodys": 7033,
      "Ġosteosarcoma": 7034,
      "Ġsignals": 7035,
      "ancreatic": 7036,
      "land": 7037,
      "eight": 7038,
      "Ġkaryotype": 7039,
      "alian": 7040,
      "Ġincomplete": 7041,
      "tes": 7042,
      "Ġmicrov": 7043,
      "Ġhh": 7044,
      "Ġindicator": 7045,
      "Ġhernia": 7046,
      "ĠâĢĵ": 7047,
      "cles": 7048,
      "Ġneurot": 7049,
      "Ġassessing": 7050,
      "Ġsheath": 7051,
      "Ġjust": 7052,
      "Ġnegatively": 7053,
      "ulates": 7054,
      "Ġlentigo": 7055,
      "Ġinstability": 7056,
      "coding": 7057,
      "Ġacids": 7058,
      "Ġirregularities": 7059,
      "olabeled": 7060,
      "Ġ400": 7061,
      "Ġfocused": 7062,
      "ergen": 7063,
      "Ġshin": 7064,
      "Ġpostoperatively": 7065,
      "Ġrecipients": 7066,
      "Ġunited": 7067,
      "Ġcum": 7068,
      "Ġerythemat": 7069,
      "Ġdeb": 7070,
      "Ġdiverse": 7071,
      "orial": 7072,
      "oemb": 7073,
      "rna": 7074,
      "great": 7075,
      "ethylation": 7076,
      "Ġwarranted": 7077,
      "Ġunl": 7078,
      "inate": 7079,
      "Ġvariably": 7080,
      "Ġachieve": 7081,
      "Ġdisruption": 7082,
      "Ġcheckpoint": 7083,
      "Ġligament": 7084,
      "seous": 7085,
      "Ġtransected": 7086,
      "osp": 7087,
      "Ġinfusion": 7088,
      "--": 7089,
      "otopic": 7090,
      "Ġarg": 7091,
      "Ġeasily": 7092,
      "Ġlimb": 7093,
      "Ġgram": 7094,
      "Ġplatelet": 7095,
      "Ġconfig": 7096,
      "melan": 7097,
      "itus": 7098,
      "appearing": 7099,
      "Ġpaucicellular": 7100,
      "Ġchildhood": 7101,
      "lined": 7102,
      "Ġcolor": 7103,
      "olving": 7104,
      "Ġprelim": 7105,
      "pan": 7106,
      "Ġweekly": 7107,
      "Ġsarcoidosis": 7108,
      "Ġsynerg": 7109,
      "Ġcarbon": 7110,
      "cutaneous": 7111,
      "Ġpreliminary": 7112,
      "Ġdistinction": 7113,
      "Ġcomposition": 7114,
      "Ġrise": 7115,
      "uz": 7116,
      "Ġpleomorphism": 7117,
      "Ġecc": 7118,
      "Ġcanine": 7119,
      "Ġpic": 7120,
      "urative": 7121,
      "Ġdelay": 7122,
      "endym": 7123,
      "efitinib": 7124,
      "Ġbrach": 7125,
      "Ġpgp": 7126,
      "Ġmdm": 7127,
      "+/": 7128,
      "Ġturn": 7129,
      "Ġpalliative": 7130,
      "Ġface": 7131,
      "Ġgst": 7132,
      "Ġquiescent": 7133,
      "Ġengl": 7134,
      "Ġcalled": 7135,
      "Ġapproval": 7136,
      "Ġedge": 7137,
      "etaxel": 7138,
      "gene": 7139,
      "<|": 7140,
      "Ġia": 7141,
      "Ġmacro": 7142,
      "Ġmonitored": 7143,
      "rach": 7144,
      "ogenicity": 7145,
      "msc": 7146,
      "Ġscanning": 7147,
      "Ġaccurately": 7148,
      "imod": 7149,
      "Ġbes": 7150,
      "Ġfixed": 7151,
      "Ġunres": 7152,
      ":-": 7153,
      "enic": 7154,
      "Ġpredominance": 7155,
      "estive": 7156,
      "Ġobesity": 7157,
      "col": 7158,
      "itic": 7159,
      "Ġlost": 7160,
      "Ġmassive": 7161,
      "Ġvisible": 7162,
      "Ġmor": 7163,
      "Ġatp": 7164,
      "Ġmyometrium": 7165,
      "alling": 7166,
      "Ġcoefficient": 7167,
      "Ġhd": 7168,
      "Ġresections": 7169,
      "including": 7170,
      "kit": 7171,
      "Ġrule": 7172,
      "Ġintracytoplasmic": 7173,
      "Ġcardiomy": 7174,
      "Ġmetalloprotein": 7175,
      "oic": 7176,
      "oles": 7177,
      "growth": 7178,
      "Ġfol": 7179,
      "isol": 7180,
      "ionitis": 7181,
      "Ġsalvage": 7182,
      "Ġimproving": 7183,
      "Ġdilat": 7184,
      "Ġulcerative": 7185,
      "Ġalle": 7186,
      "Ġblind": 7187,
      "Ġfa": 7188,
      "what": 7189,
      "Ġcirc": 7190,
      "Ġmcf": 7191,
      "ils": 7192,
      "radiated": 7193,
      "Ġrepresenting": 7194,
      "Ġundertaken": 7195,
      "rr": 7196,
      "ococc": 7197,
      "stat": 7198,
      "Ġcontinued": 7199,
      "appro": 7200,
      "Ġemphas": 7201,
      "Ġweights": 7202,
      "Ġdcis": 7203,
      "Ġhilar": 7204,
      "Ġtam": 7205,
      "Ġcomputer": 7206,
      "Ġimpairment": 7207,
      "ba": 7208,
      "Ġmotor": 7209,
      "Ġppm": 7210,
      "shaped": 7211,
      "Ġconsiderable": 7212,
      "|>:": 7213,
      "Ġselect": 7214,
      "Ġmesothelioma": 7215,
      "px": 7216,
      "Ġzones": 7217,
      "Ġlink": 7218,
      "onia": 7219,
      "Ġvasectomy": 7220,
      "Ġinsertion": 7221,
      "Ġchina": 7222,
      "Ġgefitinib": 7223,
      "Ġscj": 7224,
      "Ġamnionic": 7225,
      "ople": 7226,
      "Ġexample": 7227,
      "mediately": 7228,
      "Ġdop": 7229,
      "stim": 7230,
      "cumin": 7231,
      "utation": 7232,
      "Ġlymphocytosis": 7233,
      "Ġemerging": 7234,
      "Ġepidemiology": 7235,
      "ologist": 7236,
      "Ġmyocyte": 7237,
      "anned": 7238,
      "ony": 7239,
      "oside": 7240,
      "Ġcompleted": 7241,
      "Ġrecombinant": 7242,
      "acchar": 7243,
      "Ġappendiceal": 7244,
      "Ġirritated": 7245,
      "Ġsirna": 7246,
      "Ġ2002": 7247,
      "Ġrar": 7248,
      "133": 7249,
      "Ġproliferating": 7250,
      "Ġliquid": 7251,
      "Ġpalp": 7252,
      "Ġfibrom": 7253,
      "(-/-": 7254,
      "Ġgermline": 7255,
      "Ġpelvis": 7256,
      "opec": 7257,
      "Ġbasophilic": 7258,
      "ything": 7259,
      "uven": 7260,
      "Ġâĸ": 7261,
      "Ġconfirming": 7262,
      "Ġmil": 7263,
      "Ġtools": 7264,
      "ali": 7265,
      "imp": 7266,
      "Ġthyroiditis": 7267,
      "Ġimmunocomp": 7268,
      "uli": 7269,
      "Ġchart": 7270,
      "pred": 7271,
      "Ġreached": 7272,
      "Ġhypo": 7273,
      "phae": 7274,
      "Ġsomewhat": 7275,
      "Ġatrial": 7276,
      "Ġclip": 7277,
      "Ġvulg": 7278,
      "Ġdens": 7279,
      "Ġnorth": 7280,
      "Ġ*": 7281,
      "Ġprinc": 7282,
      "Ġanest": 7283,
      "Ġfront": 7284,
      "Ġcarry": 7285,
      "ott": 7286,
      "Ġdecreasing": 7287,
      "Ġcomplexes": 7288,
      "Ġalopec": 7289,
      "Ġstere": 7290,
      "Ġsuvmax": 7291,
      "Ġarray": 7292,
      "Ġneurites": 7293,
      "Ġresembling": 7294,
      "Ġbull": 7295,
      "rete": 7296,
      "Ġhyperkeratosis": 7297,
      "need": 7298,
      "Ġspecified": 7299,
      "Ġtwice": 7300,
      "Ġperiap": 7301,
      "Ġkit": 7302,
      "Ġhypothesized": 7303,
      "Ġvol": 7304,
      "hans": 7305,
      "Ġhard": 7306,
      "Ġpremalignant": 7307,
      "alt": 7308,
      "odend": 7309,
      "Ġlethal": 7310,
      "Ġflor": 7311,
      "fe": 7312,
      "Ġoverlap": 7313,
      "Ġphyl": 7314,
      "Ġmutated": 7315,
      "mesenchymal": 7316,
      "ats": 7317,
      "Ġpron": 7318,
      "Ġanything": 7319,
      "wt": 7320,
      "Ġhall": 7321,
      "Ġdoxorubicin": 7322,
      "oalveolar": 7323,
      "Ġhmsh": 7324,
      "Ġadenos": 7325,
      "ulmonary": 7326,
      "Ġlept": 7327,
      "Ġdilatation": 7328,
      "menopausal": 7329,
      "Ġaorta": 7330,
      "greatest": 7331,
      "Ġimmediately": 7332,
      "omycosis": 7333,
      "Ġultim": 7334,
      "Ġcoexist": 7335,
      "Ġincreasingly": 7336,
      "Ġobtain": 7337,
      "Ġprompt": 7338,
      "Ġcontributes": 7339,
      "Ġconfiguration": 7340,
      "Ġforming": 7341,
      "Ġenlargement": 7342,
      "adc": 7343,
      "Ġanatomical": 7344,
      "Ġmicron": 7345,
      "Ġinducing": 7346,
      "Ġincon": 7347,
      "Ġsyndromes": 7348,
      "Ġko": 7349,
      "Ġtechnology": 7350,
      "Ġsy": 7351,
      "Ġnotably": 7352,
      "quare": 7353,
      "Ġoptical": 7354,
      "Ġlanger": 7355,
      "ters": 7356,
      "Ġrobust": 7357,
      "Ġadjusted": 7358,
      "needle": 7359,
      "nps": 7360,
      "Ġbands": 7361,
      "onecrosis": 7362,
      "actin": 7363,
      "Ġendings": 7364,
      "ochrom": 7365,
      "Ġfluorescent": 7366,
      "Ġlaparotomy": 7367,
      "sel": 7368,
      "Ġgsh": 7369,
      "Ġpresum": 7370,
      "Ġmetaplastic": 7371,
      "ferential": 7372,
      "hcc": 7373,
      "Ġperforation": 7374,
      "Ġcumulative": 7375,
      "iocytic": 7376,
      "Ġtoe": 7377,
      "Ġspine": 7378,
      "urgery": 7379,
      "Ġswe": 7380,
      "Ġgut": 7381,
      "clock": 7382,
      "Ġmixture": 7383,
      "Ġnac": 7384,
      "gd": 7385,
      "iring": 7386,
      "Ġloose": 7387,
      "Ġcdk": 7388,
      "orionic": 7389,
      "Ġroot": 7390,
      "Ġoccult": 7391,
      "Ġnerves": 7392,
      "Ġvulgaris": 7393,
      "Ġtrop": 7394,
      "Ġ120": 7395,
      "Ġptc": 7396,
      "])": 7397,
      "Ġlobes": 7398,
      "Ġconsequent": 7399,
      "Ġplex": 7400,
      "Ġdocetaxel": 7401,
      "Ġway": 7402,
      "Ġjejun": 7403,
      "Ġmultinucleated": 7404,
      "Ġradiographs": 7405,
      "Ġmi": 7406,
      "Ġruptured": 7407,
      "Ġthy": 7408,
      "oblet": 7409,
      "Ġbost": 7410,
      "Ġâĸł": 7411,
      "Ġparallel": 7412,
      "Ġoptic": 7413,
      "assisted": 7414,
      "Ġmedulla": 7415,
      "Ġrisks": 7416,
      "Ġemphys": 7417,
      "Ġdim": 7418,
      "Ġ300": 7419,
      "Ġraise": 7420,
      "Ġmechanical": 7421,
      "Ġcatalase": 7422,
      "Ġindices": 7423,
      "Ġpv": 7424,
      "Ġperman": 7425,
      "prod": 7426,
      "Ġnative": 7427,
      "Ġdrink": 7428,
      "phase": 7429,
      "Ġgrams": 7430,
      "Ġnom": 7431,
      "Ġchorio": 7432,
      "Ġutilized": 7433,
      "Ġsparse": 7434,
      "ensitive": 7435,
      "ai": 7436,
      "opps": 7437,
      "Ġprocessed": 7438,
      "oxygen": 7439,
      "Ġevid": 7440,
      "Ġintimal": 7441,
      "Ġcurcumin": 7442,
      "Ġfatal": 7443,
      "Ġjune": 7444,
      "Ġxenografts": 7445,
      "Ġposition": 7446,
      "Ġspindled": 7447,
      "Ġcongo": 7448,
      "Ġrepresented": 7449,
      "Ġrupture": 7450,
      "Ġstrept": 7451,
      "riers": 7452,
      "Ġenrich": 7453,
      "Ġdisrup": 7454,
      "Ġmeshwork": 7455,
      "Ġion": 7456,
      "osclerosis": 7457,
      "Ġproblems": 7458,
      "Ġperib": 7459,
      "Ġreferral": 7460,
      "inations": 7461,
      "odine": 7462,
      "Ġ(-": 7463,
      "Ġfellow": 7464,
      "Ġlocations": 7465,
      "Ġnam": 7466,
      "Ġhyperchrom": 7467,
      "Ġprobability": 7468,
      "tub": 7469,
      "Ġbudding": 7470,
      "Ġverteb": 7471,
      "Ġmanaged": 7472,
      "Ġenergy": 7473,
      "%);": 7474,
      "Ġceroid": 7475,
      "Ġalkaline": 7476,
      "Ġconfirms": 7477,
      "Ġintratumoral": 7478,
      "Ġsinuses": 7479,
      "006": 7480,
      "fd": 7481,
      "containing": 7482,
      "Ġmicrosatellite": 7483,
      "gt": 7484,
      "Ġhor": 7485,
      "Ġcompletion": 7486,
      "Ġembedded": 7487,
      "Ġtransurethral": 7488,
      "Ġlncrna": 7489,
      "Ġhyphae": 7490,
      "Ġgliomas": 7491,
      "Ġulcerated": 7492,
      "Ġdistinguished": 7493,
      "Ġoss": 7494,
      "ecan": 7495,
      "Ġcapsular": 7496,
      "Ġlyn": 7497,
      "Ġmicropapillary": 7498,
      "Ġepstein": 7499,
      "Ġpermanent": 7500,
      "Ġcolonoscopy": 7501,
      "Ġamino": 7502,
      "Ġpaired": 7503,
      "Ġadhere": 7504,
      "Ġexhibits": 7505,
      "Ġconcordance": 7506,
      "Ġdecreases": 7507,
      "ulent": 7508,
      "Ġspat": 7509,
      "Ġconserv": 7510,
      "Ġcoag": 7511,
      "Ġeti": 7512,
      "Ġretrieved": 7513,
      "Ġreach": 7514,
      "Ġdex": 7515,
      "henyl": 7516,
      "Ġinadequate": 7517,
      "Ġeffort": 7518,
      "Ġdistributed": 7519,
      "Ġintense": 7520,
      "Ġdistort": 7521,
      "Ġinstitute": 7522,
      "Ġpit": 7523,
      "Ġfourth": 7524,
      "equivocal": 7525,
      "Ġoligodend": 7526,
      "ares": 7527,
      "points": 7528,
      "dim": 7529,
      "aint": 7530,
      "Ġwhat": 7531,
      "Ġpdt": 7532,
      "Ġgr": 7533,
      "Ġgoal": 7534,
      "Ġvector": 7535,
      "Ġrnas": 7536,
      "omies": 7537,
      "ostasis": 7538,
      "odynamic": 7539,
      "gr": 7540,
      "Ġoffer": 7541,
      "007": 7542,
      "Ġdefic": 7543,
      "Ġalopecia": 7544,
      "Ġcogn": 7545,
      "Ġpair": 7546,
      "Ġ2001": 7547,
      "Ġstent": 7548,
      "Ġneeds": 7549,
      "Ġimmunosuppressive": 7550,
      "Ġluc": 7551,
      "Ġexogenous": 7552,
      "bial": 7553,
      "Ġregulator": 7554,
      "mented": 7555,
      "Ġenhancing": 7556,
      "racheal": 7557,
      "Ġremn": 7558,
      "Ġinterferon": 7559,
      "Ġarteriol": 7560,
      "Ġepis": 7561,
      "ah": 7562,
      "Ġimmunity": 7563,
      "Ġexplain": 7564,
      "Ġallowed": 7565,
      "Ġhemodil": 7566,
      "Ġboston": 7567,
      "Ġhazards": 7568,
      "Ġjuven": 7569,
      "Ġasth": 7570,
      "Ġcb": 7571,
      "Ġexc": 7572,
      "ogens": 7573,
      "sk": 7574,
      "Ġembol": 7575,
      "Ġabsol": 7576,
      "Ġsi": 7577,
      "Ġconfocal": 7578,
      "cripts": 7579,
      "Ġcalp": 7580,
      "Ġdatabases": 7581,
      "Ġmaxillary": 7582,
      "Ġplanning": 7583,
      "Ġattributed": 7584,
      "Ġeffusion": 7585,
      "Ġstenosis": 7586,
      "ift": 7587,
      "ivalent": 7588,
      "oduoden": 7589,
      "elled": 7590,
      "Ġmeningiomas": 7591,
      "Ġmant": 7592,
      "sided": 7593,
      "iduct": 7594,
      "Ġfgfr": 7595,
      "Ġoncogene": 7596,
      "metastatic": 7597,
      "atum": 7598,
      "Ġamputation": 7599,
      "Ġmember": 7600,
      "Ġimmunodeficiency": 7601,
      "Ġconv": 7602,
      "Ġcod": 7603,
      "Ġprocessing": 7604,
      "mda": 7605,
      "itud": 7606,
      "Ġexud": 7607,
      "Ġrefractory": 7608,
      "Ġmonot": 7609,
      "Ġvariations": 7610,
      "Ġ2019": 7611,
      "Ġtendon": 7612,
      "Ġcoc": 7613,
      "Ġgluc": 7614,
      "Ġpromoting": 7615,
      "sin": 7616,
      "Ġnlr": 7617,
      "Ġdistance": 7618,
      "Ġimplement": 7619,
      "Ġthickened": 7620,
      "rostatic": 7621,
      "Ġemergen": 7622,
      "Ġeosinophilia": 7623,
      "Ġacr": 7624,
      "Ġtroph": 7625,
      "Ġdeline": 7626,
      "eli": 7627,
      "Ġdiarrhea": 7628,
      "Ġactivating": 7629,
      "Ġsen": 7630,
      "Ġtur": 7631,
      "requent": 7632,
      "going": 7633,
      "Ġintegrin": 7634,
      "seven": 7635,
      "Ġaggress": 7636,
      "intig": 7637,
      "ophosph": 7638,
      "Ġurea": 7639,
      "onephritis": 7640,
      "oric": 7641,
      "Ġbc": 7642,
      "Ġpeople": 7643,
      "Ġgranulocytes": 7644,
      "Ġmyelodysplastic": 7645,
      "artate": 7646,
      "Ġvariability": 7647,
      "vas": 7648,
      "Ġdss": 7649,
      "Ġenriched": 7650,
      "Ġnevi": 7651,
      "Ġguide": 7652,
      "lotinib": 7653,
      "Ġsarcomatoid": 7654,
      "put": 7655,
      "Ġrim": 7656,
      "Ġmotility": 7657,
      "Ġperioperative": 7658,
      "obser": 7659,
      "irect": 7660,
      "Ġchorangi": 7661,
      "Ġmitochondria": 7662,
      "Ġeuth": 7663,
      "Ġocclusion": 7664,
      "observer": 7665,
      "Ġendoscop": 7666,
      "Ġbasic": 7667,
      "rotic": 7668,
      "Ġank": 7669,
      "Ġbuc": 7670,
      "Ġkill": 7671,
      "iquit": 7672,
      "tb": 7673,
      "wn": 7674,
      "Ġincontin": 7675,
      "Ġthymus": 7676,
      "Ġbarrier": 7677,
      "ovillous": 7678,
      "Ġbesides": 7679,
      "Ġ150": 7680,
      "Ġsegments": 7681,
      "Ġbreakdown": 7682,
      "Ġdecid": 7683,
      "Ġependym": 7684,
      "Ġgreen": 7685,
      "ossa": 7686,
      "Ġtransforming": 7687,
      "Ġsilver": 7688,
      "Ġsignalling": 7689,
      "amnionitis": 7690,
      "Ġpole": 7691,
      "erb": 7692,
      "Ġinsights": 7693,
      "ohy": 7694,
      "Ġarticles": 7695,
      "Ġbind": 7696,
      "Ġconsistently": 7697,
      "Ġpsoriasis": 7698,
      "Ġtolerated": 7699,
      "transferase": 7700,
      "Ġfavored": 7701,
      "csf": 7702,
      "Ġleiomyosarcoma": 7703,
      "ilities": 7704,
      "Ġbenefits": 7705,
      "ispos": 7706,
      "nb": 7707,
      "Ġauc": 7708,
      "Ġladen": 7709,
      "clerotic": 7710,
      "imination": 7711,
      "Ġarth": 7712,
      "Ġadapt": 7713,
      "Ġthrombosis": 7714,
      "Ġnarrow": 7715,
      "Ġsimultaneously": 7716,
      "mortem": 7717,
      "Ġgoblet": 7718,
      "Ġpatches": 7719,
      "Ġtubulovillous": 7720,
      "sod": 7721,
      "apsin": 7722,
      "istically": 7723,
      "Ġparent": 7724,
      "Ġleiomyomas": 7725,
      "Ġsatis": 7726,
      "Ġrearrangements": 7727,
      "Ġalanine": 7728,
      "Ġmandibular": 7729,
      "Ġprogenitor": 7730,
      "Ġtranscripts": 7731,
      "Ġvagina": 7732,
      "barr": 7733,
      "asic": 7734,
      "Ġarranged": 7735,
      "Ġpulp": 7736,
      "Ġincub": 7737,
      "Ġcondyl": 7738,
      "Ġputative": 7739,
      "Ġsouth": 7740,
      "Ġconjunctival": 7741,
      "Ġbalb": 7742,
      "cents": 7743,
      "Ġstimulated": 7744,
      "odermal": 7745,
      "Ġemergency": 7746,
      "intigraph": 7747,
      "Ġperitoneum": 7748,
      "Ġinfrequent": 7749,
      "ounced": 7750,
      "Ġunequivocal": 7751,
      "Ġarteri": 7752,
      "Ġradios": 7753,
      "gi": 7754,
      "Ġencephal": 7755,
      "Ġfet": 7756,
      "Ġharv": 7757,
      "Ġdiscovery": 7758,
      "Ġvocal": 7759,
      "Ġpronounced": 7760,
      "Ġbmi": 7761,
      "Ġfebr": 7762,
      "Ġdispersed": 7763,
      "yse": 7764,
      "Ġoperated": 7765,
      "Ġneuropath": 7766,
      "Ġsched": 7767,
      "Ġpharmacological": 7768,
      "odds": 7769,
      "Ġdisseminated": 7770,
      "Ġbiologic": 7771,
      "Ġtwel": 7772,
      "Ġbrunt": 7773,
      "Ġspectromet": 7774,
      "Ġincontinence": 7775,
      "Ġmf": 7776,
      "aria": 7777,
      "Ġendothel": 7778,
      "Ġscchn": 7779,
      "Ġreplaced": 7780,
      "Ġdental": 7781,
      "Ġsurvivin": 7782,
      "Ġanomal": 7783,
      "Ġelucidated": 7784,
      "Ġchanged": 7785,
      "Ġpersonal": 7786,
      "Ġelectro": 7787,
      "Ġchorioamnionitis": 7788,
      "ottic": 7789,
      "Ġgenetically": 7790,
      "Ġhepatotoxicity": 7791,
      "Ġvesicular": 7792,
      "Ġsider": 7793,
      "theless": 7794,
      "apoptotic": 7795,
      "Ġcalf": 7796,
      "Ġesc": 7797,
      "Ġcutoff": 7798,
      "Ġsynth": 7799,
      "opol": 7800,
      "Ġdrain": 7801,
      "Ġmuscles": 7802,
      "Ġvesicle": 7803,
      "Ġnevertheless": 7804,
      "Ġstarted": 7805,
      "008": 7806,
      "Ġpredispos": 7807,
      "Ġreporter": 7808,
      "Ġpouch": 7809,
      "Ġopscc": 7810,
      "Ġmscs": 7811,
      "Ġinvading": 7812,
      "Ġvirt": 7813,
      "Ġcran": 7814,
      "Ġtransport": 7815,
      "Ġwil": 7816,
      "optimal": 7817,
      "Ġpartly": 7818,
      "expressing": 7819,
      "vegf": 7820,
      "Ġspectroscopy": 7821,
      "rinsic": 7822,
      "Ġtwelve": 7823,
      "Ġcombining": 7824,
      "rist": 7825,
      "Ġste": 7826,
      "Ġmarch": 7827,
      "antib": 7828,
      "Ġmp": 7829,
      "Ġvert": 7830,
      "Ġsoftware": 7831,
      "Ġprotocols": 7832,
      "Ġongoing": 7833,
      "Ġtelomerase": 7834,
      "Ġserosa": 7835,
      "Ġconjunction": 7836,
      "Ġadenoid": 7837,
      "ertility": 7838,
      "Ġchord": 7839,
      "Ġidentif": 7840,
      "cision": 7841,
      "daw": 7842,
      "unk": 7843,
      "Ġrank": 7844,
      "Ġcf": 7845,
      "hesia": 7846,
      "Ġenrichment": 7847,
      "Ġbccs": 7848,
      "Ġelong": 7849,
      "Ġdelivered": 7850,
      "Ġgir": 7851,
      "portun": 7852,
      "Ġrich": 7853,
      "Ġadenosis": 7854,
      "Ġdos": 7855,
      "Ġreduct": 7856,
      "Ġregulates": 7857,
      "otoxic": 7858,
      "Ġcoch": 7859,
      "Ġreplication": 7860,
      "Ġquantified": 7861,
      "dawley": 7862,
      "Ġrod": 7863,
      "Ġtext": 7864,
      "Ġfundic": 7865,
      "Ġinactivation": 7866,
      "Ġdic": 7867,
      "Ġhormonal": 7868,
      "Ġsle": 7869,
      "Ġnapsin": 7870,
      "Ġhemodilute": 7871,
      "ospor": 7872,
      "Ġmapk": 7873,
      "Ġobstructive": 7874,
      "(-/-)": 7875,
      "Ġileitis": 7876,
      "Ġdesmoplastic": 7877,
      "Ġopportun": 7878,
      "Ġnh": 7879,
      "Ġrequested": 7880,
      "phthal": 7881,
      "Ġnephrot": 7882,
      "opre": 7883,
      "Ġmsh": 7884,
      "ana": 7885,
      "nine": 7886,
      "Ġbones": 7887,
      "Ġalbino": 7888,
      "Ġcast": 7889,
      "Ġxanth": 7890,
      "Ġunresectable": 7891,
      "Ġlr": 7892,
      "Ġjuvenile": 7893,
      "psis": 7894,
      "Ġpolyt": 7895,
      "Ġsociety": 7896,
      "sma": 7897,
      "Ġcandidates": 7898,
      "Ġabsolute": 7899,
      "Ġeuthan": 7900,
      "ference": 7901,
      "Ġband": 7902,
      "iferase": 7903,
      "Ġcontral": 7904,
      "Ġpack": 7905,
      "Ġgfap": 7906,
      "Ġstriking": 7907,
      "Ġcholangiocarcinoma": 7908,
      "rand": 7909,
      "+.": 7910,
      "acetyl": 7911,
      "pfs": 7912,
      "Ġrabbit": 7913,
      "Ġmetabolites": 7914,
      "Ġmicrorna": 7915,
      "Ġsynthase": 7916,
      "Ġsuppurative": 7917,
      "Ġcontralateral": 7918,
      "berg": 7919,
      "Ġultra": 7920,
      "tg": 7921,
      "Ġindicators": 7922,
      "Ġnormative": 7923,
      "Ġplaced": 7924,
      "atus": 7925,
      "Ġcircumscribed": 7926,
      "Ġlactate": 7927,
      "Ġcres": 7928,
      "des": 7929,
      "ll": 7930,
      "Ġoblit": 7931,
      "Ġchorangiosis": 7932,
      "ready": 7933,
      "Ġarterioles": 7934,
      "Ġadded": 7935,
      "Ġ@": 7936,
      "Ġcopper": 7937,
      "gent": 7938,
      "Ġulcers": 7939,
      "Ġeuropean": 7940,
      "ster": 7941,
      "Ġsubunit": 7942,
      "Ġprolapse": 7943,
      "Ġbridging": 7944,
      "bre": 7945,
      "Ġphenotypic": 7946,
      "sec": 7947,
      "Ġmill": 7948,
      "Ġstren": 7949,
      "Ġfibroma": 7950,
      "Ġrequiring": 7951,
      "Ġrecru": 7952,
      "Ġbegin": 7953,
      "Ġcorticoster": 7954,
      "cemia": 7955,
      "Ġdisturb": 7956,
      "Ġalready": 7957,
      "mucosal": 7958,
      "Ġmyocardium": 7959,
      "Ġdissemination": 7960,
      "Ġhallmark": 7961,
      "ching": 7962,
      "Ġureth": 7963,
      "Ġcomplicated": 7964,
      "Ġatherosclerosis": 7965,
      "pes": 7966,
      "Ġcranial": 7967,
      "isions": 7968,
      "ycl": 7969,
      "Ġdetached": 7970,
      "Ġchallenges": 7971,
      "etics": 7972,
      "Ġmesothelial": 7973,
      "Ġrheumatoid": 7974,
      "Ġraises": 7975,
      "years": 7976,
      "Ġadvantage": 7977,
      "Ġcapable": 7978,
      "Ġsuboptimal": 7979,
      "Ġdecade": 7980,
      "reperfusion": 7981,
      "Ġchap": 7982,
      "Ġnested": 7983,
      "plets": 7984,
      "Ġlaryng": 7985,
      "ymmet": 7986,
      "Ġopin": 7987,
      "chi": 7988,
      "medullary": 7989,
      "md": 7990,
      "Ġepithelia": 7991,
      "Ġperiphery": 7992,
      "rogenic": 7993,
      "ditary": 7994,
      "Ġdark": 7995,
      "Ġstability": 7996,
      "Ġseventy": 7997,
      "inum": 7998,
      "Ġdia": 7999,
      "Ġpreparations": 8000,
      "Ġsepsis": 8001,
      "Ġflank": 8002,
      "glut": 8003,
      "Ġstation": 8004,
      "Ġfracture": 8005,
      "Ġinvers": 8006,
      "Ġlangerhans": 8007,
      "Ġsma": 8008,
      "hesis": 8009,
      "Ġda": 8010,
      "ocardi": 8011,
      "Ġhistone": 8012,
      "nr": 8013,
      "uscular": 8014,
      "Ġmob": 8015,
      "Ġnrf": 8016,
      "elihood": 8017,
      "%]": 8018,
      "hum": 8019,
      "osity": 8020,
      "erations": 8021,
      "Ġmethodology": 8022,
      "zyme": 8023,
      "Ġts": 8024,
      "ostatin": 8025,
      "Ġneurofibroma": 8026,
      "Ġcommerc": 8027,
      "Ġneuroblastoma": 8028,
      "Ġemphysema": 8029,
      "exposed": 8030,
      "Ġcategorized": 8031,
      "eded": 8032,
      "Ġinhal": 8033,
      "Ġdc": 8034,
      "Ġtransfected": 8035,
      "Ġexclusively": 8036,
      "Ġmeshworks": 8037,
      "independent": 8038,
      "mmp": 8039,
      "Ġsearc": 8040,
      "Ġspongiotic": 8041,
      "163": 8042,
      "Ġcig": 8043,
      "Ġusefulness": 8044,
      "Ġsf": 8045,
      "Ġaddress": 8046,
      "Ġunfav": 8047,
      "Ġremarkable": 8048,
      "Ġneurop": 8049,
      "Ġmultil": 8050,
      "Ġshock": 8051,
      "field": 8052,
      "Ġthrombocyt": 8053,
      "Ġmtor": 8054,
      "Ġages": 8055,
      "Ġ1999": 8056,
      "Ġly": 8057,
      "Ġprophyl": 8058,
      "Ġinvasiveness": 8059,
      "Ġbronchus": 8060,
      "atures": 8061,
      "Ġnasopharyngeal": 8062,
      "Ġraised": 8063,
      "ensit": 8064,
      "Ġserial": 8065,
      "Ġbelong": 8066,
      "Ġ1998": 8067,
      "idym": 8068,
      "Ġcompartment": 8069,
      "Ġaxonopathy": 8070,
      "Ġbland": 8071,
      "Ġinterfollicular": 8072,
      "Ġinitiated": 8073,
      "isth": 8074,
      "odeoxy": 8075,
      "009": 8076,
      "Ġgastroenter": 8077,
      "Ġpreventing": 8078,
      "Ġverruca": 8079,
      "Ġhyalinized": 8080,
      "otroph": 8081,
      "mult": 8082,
      "oct": 8083,
      "Ġerlotinib": 8084,
      "Ġimplanted": 8085,
      "Ġrecruited": 8086,
      "Ġegf": 8087,
      "Ġhm": 8088,
      "Ġlymphohist": 8089,
      "Ġproportions": 8090,
      "Ġperitumoral": 8091,
      "ococcus": 8092,
      "Ġvalidate": 8093,
      "Ġvin": 8094,
      "uled": 8095,
      "Ġ].": 8096,
      "Ġcarotid": 8097,
      "Ġharboring": 8098,
      "Ġflorid": 8099,
      "Ġprefer": 8100,
      "Ġsets": 8101,
      "Ġchondrosarcoma": 8102,
      "sign": 8103,
      "Ġsomat": 8104,
      "Ġairways": 8105,
      "Ġdroplets": 8106,
      "car": 8107,
      "Ġperoxidase": 8108,
      "has": 8109,
      "Ġpagetoid": 8110,
      "Ġlikelihood": 8111,
      "dig": 8112,
      "Ġbony": 8113,
      "uminal": 8114,
      "eratotic": 8115,
      "oplatin": 8116,
      "load": 8117,
      "Ġubiquit": 8118,
      "Ġneonatal": 8119,
      "Ġosteocl": 8120,
      "dfs": 8121,
      "acc": 8122,
      "Ġinfant": 8123,
      "Ġmsi": 8124,
      "Ġdefinition": 8125,
      "Ġpaucity": 8126,
      "Ġjaw": 8127,
      "Ġindications": 8128,
      "Ġlook": 8129,
      "Ġminimum": 8130,
      "Ġleak": 8131,
      "Ġastrocytoma": 8132,
      "oxygenase": 8133,
      "Ġprecancer": 8134,
      "aemia": 8135,
      "illus": 8136,
      "cox": 8137,
      "Ġneutrop": 8138,
      "Ġrelationships": 8139,
      "Ġcil": 8140,
      "Ġdivers": 8141,
      "(-)": 8142,
      "erd": 8143,
      "Ġcontamin": 8144,
      "Ġepidemiological": 8145,
      "Ġaccepted": 8146,
      "olid": 8147,
      "au": 8148,
      "otactic": 8149,
      "Ġethn": 8150,
      "Ġfragmentation": 8151,
      "Ġenucle": 8152,
      "Ġhyperg": 8153,
      "Ġcollection": 8154,
      "Ġquestionna": 8155,
      "Ġsurgeons": 8156,
      "Ġtestes": 8157,
      "Ġhereditary": 8158,
      "Ġspectrometry": 8159,
      "Ġmtt": 8160,
      "Ġepididym": 8161,
      "ool": 8162,
      "Ġsna": 8163,
      "Ġedematous": 8164,
      "Ġessentially": 8165,
      "Ġprincip": 8166,
      "Ġmn": 8167,
      "Ġoesophagus": 8168,
      "ote": 8169,
      "Ġskull": 8170,
      "Ġsubtle": 8171,
      "calc": 8172,
      "Ġamyloidosis": 8173,
      "Ġrecommendations": 8174,
      "Ġgradually": 8175,
      "Ġcreated": 8176,
      "oac": 8177,
      "iably": 8178,
      "Ġirradiated": 8179,
      "anding": 8180,
      "Ġuns": 8181,
      "Ġnucleotide": 8182,
      "Ġrelaps": 8183,
      "Ġregarded": 8184,
      "fda": 8185,
      "Ġgm": 8186,
      "Ġapprec": 8187,
      "Ġneo": 8188,
      "Ġjuly": 8189,
      "Ġdisarray": 8190,
      "let": 8191,
      "fld": 8192,
      "sectional": 8193,
      "Ġinvade": 8194,
      "uls": 8195,
      "ulae": 8196,
      "Ġborders": 8197,
      "Ġmagnification": 8198,
      "Ġembryonal": 8199,
      "Ġcollectively": 8200,
      "requ": 8201,
      "Ġaberrations": 8202,
      "Ġsynthesized": 8203,
      "Ġsustained": 8204,
      "Ġautosomal": 8205,
      "Ġtolu": 8206,
      "raft": 8207,
      "brt": 8208,
      "test": 8209,
      "ophytic": 8210,
      "Ġbecame": 8211,
      "Ġelectroph": 8212,
      "Ġbehaviour": 8213,
      "arp": 8214,
      "Ġthermal": 8215,
      "ontal": 8216,
      "Ġinjections": 8217,
      "Ġkeratinizing": 8218,
      "Ġimproves": 8219,
      "Ġallergic": 8220,
      "Ġroutinely": 8221,
      "Ġadenomyosis": 8222,
      "Ġplacebo": 8223,
      "Ġpolytypic": 8224,
      "inos": 8225,
      "Ġcos": 8226,
      "hydroxy": 8227,
      "Ġhypermethylation": 8228,
      "Ġultimately": 8229,
      "protein": 8230,
      "Ġdisapp": 8231,
      "approximately": 8232,
      "Ġtemperature": 8233,
      "opharynx": 8234,
      "Ġsequential": 8235,
      "oprevent": 8236,
      "Ġbound": 8237,
      "eine": 8238,
      "cb": 8239,
      "Ġagon": 8240,
      "Ġlowest": 8241,
      "Ġcontribution": 8242,
      "Ġelement": 8243,
      "Ġbuccal": 8244,
      "Ġasthma": 8245,
      "itudinal": 8246,
      "Ġtransplanted": 8247,
      "Ġeast": 8248,
      "rose": 8249,
      "ele": 8250,
      "Ġmicrornas": 8251,
      "tiss": 8252,
      "Ġfgf": 8253,
      "Ġrecovered": 8254,
      "romised": 8255,
      "Ġparag": 8256,
      "Ġchromat": 8257,
      "Ġveins": 8258,
      "Ġaspartate": 8259,
      "Ġaxons": 8260,
      "Ġtit": 8261,
      "rof": 8262,
      "Ġroc": 8263,
      "Ġacceptable": 8264,
      "Ġ).": 8265,
      "fp": 8266,
      "adv": 8267,
      "Ġinher": 8268,
      "Ġvital": 8269,
      "Ġplastic": 8270,
      "immunolabeled": 8271,
      "Ġground": 8272,
      "Ġlavage": 8273,
      "Ġbov": 8274,
      "agia": 8275,
      "oduodenectomy": 8276,
      "aminase": 8277,
      "pig": 8278,
      "Ġformer": 8279,
      "axis": 8280,
      "Ġsignatures": 8281,
      "Ġmucus": 8282,
      "Ġnamely": 8283,
      "Ġperitubular": 8284,
      "Ġreduces": 8285,
      "Ġinoculated": 8286,
      "Ġgh": 8287,
      "oplak": 8288,
      "Ġconjug": 8289,
      "cts": 8290,
      "Ġerad": 8291,
      "Ġchemoprevent": 8292,
      "Ġexisting": 8293,
      "upled": 8294,
      "Ġmell": 8295,
      "Ġcombinations": 8296,
      "producing": 8297,
      "Ġtib": 8298,
      "Ġmimicking": 8299,
      "asias": 8300,
      "Ġmicrogl": 8301,
      "patient": 8302,
      "Ġcompet": 8303,
      "kb": 8304,
      "fna": 8305,
      "Ġls": 8306,
      "ucas": 8307,
      "Ġreconstruct": 8308,
      "Ġimmediate": 8309,
      "Ġmaa": 8310,
      "Ġsensory": 8311,
      "era": 8312,
      "antitative": 8313,
      "Ġcancerous": 8314,
      "Ġinfluenced": 8315,
      "ĠÎ": 8316,
      "Ġhematological": 8317,
      "matched": 8318,
      "Ġcardiovascular": 8319,
      "transplant": 8320,
      "intigraphy": 8321,
      "Ġlongitudinal": 8322,
      "Ġserved": 8323,
      "Ġdiscontinuous": 8324,
      "mater": 8325,
      "eds": 8326,
      "Ġthorough": 8327,
      "ivation": 8328,
      "Ġ250": 8329,
      "absent": 8330,
      "lycer": 8331,
      "Ġmodulation": 8332,
      "Ġcigare": 8333,
      "human": 8334,
      "Ġnps": 8335,
      "Ġerbb": 8336,
      "aves": 8337,
      "idal": 8338,
      "Ġdepends": 8339,
      "Ġintraperitoneally": 8340,
      "Ġbeh": 8341,
      "Ġchemo": 8342,
      "Ġeleven": 8343,
      "Ġmural": 8344,
      "Ġkl": 8345,
      "Ġextremities": 8346,
      "Ġide": 8347,
      "Ġpb": 8348,
      "Ġclon": 8349,
      "ï¿½ï¿½ï¿½ï¿½ï¿½ï¿½ï¿½ï¿½": 8350,
      "Ġcalponin": 8351,
      "Ġpreoperatively": 8352,
      "Ġcxcr": 8353,
      "Ġlncrnas": 8354,
      "Ġdura": 8355,
      "Ġmib": 8356,
      "Ġbinucle": 8357,
      "Ġ1000": 8358,
      "Ġnephritis": 8359,
      "Ġfundus": 8360,
      "uncan": 8361,
      "Ġconsequently": 8362,
      "ples": 8363,
      "Ġtemple": 8364,
      "pop": 8365,
      "herapy": 8366,
      "Ġheat": 8367,
      "Ġtranspor": 8368,
      "Ġretention": 8369,
      "Ġisolates": 8370,
      "Ġduncan": 8371,
      "Ġunev": 8372,
      "Ġneuropathy": 8373,
      "Ġintegrity": 8374,
      "Ġspreading": 8375,
      "Ġsurvey": 8376,
      "Ġovert": 8377,
      "Ġparatub": 8378,
      "Ġhot": 8379,
      "Ġcommit": 8380,
      "Ġvertical": 8381,
      "eber": 8382,
      "Ġimmunocyt": 8383,
      "Ġperiods": 8384,
      "andibular": 8385,
      "Ġtransfection": 8386,
      "natal": 8387,
      "Ġscal": 8388,
      "Ġsubchorionic": 8389,
      "Ġsupplementation": 8390,
      "Ġneuron": 8391,
      "Ġlymphoproliferative": 8392,
      "Ġpropensity": 8393,
      "Ġcognitive": 8394,
      "Ġfrequencies": 8395,
      "mar": 8396,
      "Ġimmunological": 8397,
      "Ġimmunosuppression": 8398,
      "Ġfix": 8399,
      "Ġzeb": 8400,
      "py": 8401,
      "performed": 8402,
      "Ġsecreted": 8403,
      "Ġrhin": 8404,
      "rical": 8405,
      "Ġones": 8406,
      "pler": 8407,
      "tte": 8408,
      "Ġdrinking": 8409,
      "Ġgd": 8410,
      "Ġeventually": 8411,
      "Ġtendency": 8412,
      "Ġflo": 8413,
      "Ġinterstitium": 8414,
      "Ġgingival": 8415,
      "Ġorient": 8416,
      "Ġhamartoma": 8417,
      "Ġetiologies": 8418,
      "idase": 8419,
      "Ġhistor": 8420,
      "Ġisolation": 8421,
      "silateral": 8422,
      "Ġibd": 8423,
      "Ġevidenced": 8424,
      "Ġplease": 8425,
      "Ġsimplex": 8426,
      "Ġmaintain": 8427,
      "Ġ(~": 8428,
      "Ġproj": 8429,
      "Ġtestosterone": 8430,
      "Ġzinc": 8431,
      "parts": 8432,
      "Ġlocus": 8433,
      "Ġtau": 8434,
      "Ġlymphohistiocytic": 8435,
      "Ġasian": 8436,
      "degeneration": 8437,
      "ubin": 8438,
      "pac": 8439,
      "arter": 8440,
      "Ġphosphorylated": 8441,
      "Ġissue": 8442,
      "Ġnomogram": 8443,
      "Ġsplic": 8444,
      "Ġprogressed": 8445,
      "Ġdysph": 8446,
      "meniscus": 8447,
      "Ġexplant": 8448,
      "Ġexists": 8449,
      "Ġcytometric": 8450,
      "operoxidase": 8451,
      "Ġdiagnostics": 8452,
      "Ġoriginating": 8453,
      "Ġstrict": 8454,
      "Ġapril": 8455,
      "Ġdysp": 8456,
      "mentation": 8457,
      "Ġcaucas": 8458,
      "Ġencoding": 8459,
      "Ġipsilateral": 8460,
      "Ġperiappend": 8461,
      "ht": 8462,
      "itz": 8463,
      "oidy": 8464,
      "erian": 8465,
      "Ġophthal": 8466,
      "oblastomas": 8467,
      "Ġplatform": 8468,
      "Ġfossa": 8469,
      "Ġinfants": 8470,
      "Ġhsv": 8471,
      "Ġaur": 8472,
      "Ġtwin": 8473,
      "Ġequivalent": 8474,
      "Ġdiffered": 8475,
      "Ġmineral": 8476,
      "Ġdiminished": 8477,
      "Ġcollagenous": 8478,
      "amycin": 8479,
      "Ġgray": 8480,
      "Ġpda": 8481,
      "Ġexpert": 8482,
      "Ġformulation": 8483,
      "inform": 8484,
      "Ġstay": 8485,
      "Ġoncological": 8486,
      "Ġsubacute": 8487,
      "clonal": 8488,
      "Ġhospitals": 8489,
      "infiltr": 8490,
      "Ġantip": 8491,
      "Ġmellitus": 8492,
      "early": 8493,
      "syn": 8494,
      "iferous": 8495,
      "Ġrestored": 8496,
      "+).": 8497,
      "Ġsubstr": 8498,
      "Ġameliorated": 8499,
      "Ġrhabdomyosarcoma": 8500,
      "lic": 8501,
      "Ġecz": 8502,
      "Ġbrush": 8503,
      "Ġinos": 8504,
      "Ġperforming": 8505,
      "Ġtraumatic": 8506,
      "Ġdisrupted": 8507,
      "Ġexhibiting": 8508,
      "Ġpubmed": 8509,
      "regional": 8510,
      "Ġquantification": 8511,
      "rocyte": 8512,
      "Ġpluripotent": 8513,
      "aa": 8514,
      "Ġlymphangi": 8515,
      "Ġfeeding": 8516,
      "Ġphysicians": 8517,
      "%):": 8518,
      "Ġmb": 8519,
      "Ġopinion": 8520,
      "Ġchromosomes": 8521,
      "Ġtracheal": 8522,
      "Ġinjur": 8523,
      "Ġ1997": 8524,
      "Ġlivers": 8525,
      "Ġhind": 8526,
      "Ġclaud": 8527,
      "Ġhyperchromatic": 8528,
      "Ġquite": 8529,
      "Ġaggressiveness": 8530,
      "Ġmantle": 8531,
      "Ġsettings": 8532,
      "Ġgrafts": 8533,
      "Ġrestriction": 8534,
      "acrimal": 8535,
      "Ġwbcs": 8536,
      "orable": 8537,
      "Ġgas": 8538,
      "Ġindicative": 8539,
      "Ġnephrotoxicity": 8540,
      "imus": 8541,
      "Ġspatial": 8542,
      "Ġextraction": 8543,
      "Ġviruses": 8544,
      "Ġbeam": 8545,
      "Ġguided": 8546,
      "acial": 8547,
      "aple": 8548,
      "Ġdefinit": 8549,
      "gsh": 8550,
      "itatively": 8551,
      "Ġgad": 8552,
      "Ġaccelerated": 8553,
      "Ġsout": 8554,
      "Ġnx": 8555,
      "arrays": 8556,
      "Ġtriple": 8557,
      "Ġglomerulosclerosis": 8558,
      "ics": 8559,
      "Ġharb": 8560,
      "Ġtoluidine": 8561,
      "Ġherpes": 8562,
      "Ġderivatives": 8563,
      "Ġpercutaneous": 8564,
      "Ġimplants": 8565,
      "Ġaqueous": 8566,
      "melanoma": 8567,
      "pres": 8568,
      "Ġrecruit": 8569,
      "Ġunlike": 8570,
      "Ġloh": 8571,
      "Ġtransection": 8572,
      "abdominal": 8573,
      "Ġchannels": 8574,
      "Ġhomogeneous": 8575,
      "hog": 8576,
      "Ġintramucosal": 8577,
      "Ġpreparation": 8578,
      "Ġconservative": 8579,
      "Ġparagangl": 8580,
      "Ġscored": 8581,
      "Ġsolar": 8582,
      "idyl": 8583,
      "ensis": 8584,
      "Ġerythema": 8585,
      "Ġfigo": 8586,
      "accharide": 8587,
      "Ġasper": 8588,
      "tgf": 8589,
      "Ġplanned": 8590,
      "kappa": 8591,
      "Ġsubject": 8592,
      "Ġlep": 8593,
      "affold": 8594,
      "Ġisth": 8595,
      "sch": 8596,
      "mac": 8597,
      "Ġscaffold": 8598,
      "Ġcentre": 8599,
      "absorption": 8600,
      "Ġsideroblasts": 8601,
      "aved": 8602,
      "Ġadjunct": 8603,
      "aim": 8604,
      "Ġpik": 8605,
      "Ġdelt": 8606,
      "Ġemphasis": 8607,
      "Ġproinflammatory": 8608,
      "Ġneutropenia": 8609,
      "but": 8610,
      "Ġpf": 8611,
      "Ġsurvived": 8612,
      "derm": 8613,
      "Ġ1995": 8614,
      "Ġreasons": 8615,
      "oepithel": 8616,
      "Ġhypoxic": 8617,
      "ecs": 8618,
      "yer": 8619,
      "Ġintervillous": 8620,
      "eter": 8621,
      "Ġmaximal": 8622,
      "Ġtrunk": 8623,
      "Ġcircumferential": 8624,
      "bearing": 8625,
      "Ġstabil": 8626,
      "ifferentiation": 8627,
      "Ġsusceptible": 8628,
      "Ġmode": 8629,
      "targeted": 8630,
      "elf": 8631,
      "ryonic": 8632,
      "Ġintrahepatic": 8633,
      "Ġnecropsy": 8634,
      "ih": 8635,
      "Ġnpc": 8636,
      "oresistance": 8637,
      "Ġdatasets": 8638,
      "Ġaugust": 8639,
      "Ġhomeostasis": 8640,
      "polym": 8641,
      "irubin": 8642,
      "Ġfetus": 8643,
      "Ġbund": 8644,
      "Ġars": 8645,
      "olent": 8646,
      "crnas": 8647,
      "Ġparameter": 8648,
      "Ġpooled": 8649,
      "Ġleukocyte": 8650,
      "Ġcyclo": 8651,
      "Ġsurgeon": 8652,
      "heres": 8653,
      "Ġmicroarrays": 8654,
      "Ġindia": 8655,
      "Ġcholestasis": 8656,
      "Ġoffers": 8657,
      "uber": 8658,
      "iaz": 8659,
      "illar": 8660,
      "tent": 8661,
      "bow": 8662,
      "isional": 8663,
      "isition": 8664,
      "xia": 8665,
      "ytherapy": 8666,
      "Ġtrends": 8667,
      "Ġrarity": 8668,
      "obronchial": 8669,
      "Ġwounds": 8670,
      "Ġcarboplatin": 8671,
      "Ġorbit": 8672,
      "Ġcovered": 8673,
      "Ġdedifferentiated": 8674,
      ")]": 8675,
      "Ġmediators": 8676,
      "mlh": 8677,
      "oplakia": 8678,
      "Ġsial": 8679,
      "Ġmultin": 8680,
      "stead": 8681,
      "Ġlesser": 8682,
      "Ġepilepsy": 8683,
      "Ġgive": 8684,
      "Ġmas": 8685,
      "Ġmicrovessel": 8686,
      "Ġmetalloproteinase": 8687,
      "gp": 8688,
      "power": 8689,
      "Ġmach": 8690,
      "vern": 8691,
      "Ġwors": 8692,
      "Ġperin": 8693,
      "Ġcrani": 8694,
      "Ġsevent": 8695,
      "Ġpancyt": 8696,
      "Ġstarting": 8697,
      "ober": 8698,
      "okine": 8699,
      "Ġtight": 8700,
      "resolution": 8701,
      "Ġccr": 8702,
      "Ġtooth": 8703,
      "orbent": 8704,
      "Ġsearched": 8705,
      "Ġgill": 8706,
      "Ġosteop": 8707,
      "eterminate": 8708,
      "Ġhcv": 8709,
      "ogenes": 8710,
      "Ġangiosarcoma": 8711,
      "Ġcxcl": 8712,
      "Ġhippocampus": 8713,
      "Ġnad": 8714,
      "Ġmov": 8715,
      "aliplatin": 8716,
      "Ġresemble": 8717,
      "chang": 8718,
      "Ġlib": 8719,
      "Ġintran": 8720,
      "Ġhistomorph": 8721,
      "Ġ[(": 8722,
      "Ġdiscrete": 8723,
      "lo": 8724,
      "ife": 8725,
      "Ġgenerate": 8726,
      "Ġpann": 8727,
      "Ġasperg": 8728,
      "rig": 8729,
      "Ġindication": 8730,
      "Ġoa": 8731,
      "oto": 8732,
      "Ġtechnical": 8733,
      "Ġunfavorable": 8734,
      "Ġsheep": 8735,
      "Ġawareness": 8736,
      "tissue": 8737,
      "map": 8738,
      "Ġactivator": 8739,
      "classified": 8740,
      "icol": 8741,
      "Ġrun": 8742,
      "ables": 8743,
      "Ġequivocal": 8744,
      "omegaly": 8745,
      "Ġclipping": 8746,
      "hion": 8747,
      "Ġbioinform": 8748,
      "etric": 8749,
      "reactive": 8750,
      "Ġtors": 8751,
      "ala": 8752,
      "Ġeighty": 8753,
      "tk": 8754,
      "Ġsampled": 8755,
      "orac": 8756,
      "Ġren": 8757,
      "Ġobst": 8758,
      "Ġindolent": 8759,
      "back": 8760,
      "Ġstro": 8761,
      "obiliary": 8762,
      "Ġpicture": 8763,
      "rcc": 8764,
      "Ġpneumonitis": 8765,
      "Ġpermeability": 8766,
      "Ġhl": 8767,
      "Ġhed": 8768,
      "Ġdescriptions": 8769,
      "Ġafrican": 8770,
      "Ġsud": 8771,
      "Ġlinc": 8772,
      "Ġphotodynamic": 8773,
      "Ġaccounts": 8774,
      "Ġmyeloperoxidase": 8775,
      "Ġurethra": 8776,
      "Ġgeneralized": 8777,
      "Ġcondyloma": 8778,
      "ometry": 8779,
      "Ġremark": 8780,
      "cine": 8781,
      "Ġbp": 8782,
      "Ġala": 8783,
      "Ġoncologic": 8784,
      "Ġobservational": 8785,
      "Ġanastomotic": 8786,
      "Ġdrainage": 8787,
      "Ġcoding": 8788,
      "Ġboy": 8789,
      "Ġmodification": 8790,
      "Ġemerged": 8791,
      "Ġunits": 8792,
      "rants": 8793,
      "Ġsubstit": 8794,
      "orin": 8795,
      "invasion": 8796,
      "Ġtended": 8797,
      "Ġglomerulonephritis": 8798,
      "Ġdeterior": 8799,
      "Ġhab": 8800,
      "mutant": 8801,
      "astases": 8802,
      "Ġsert": 8803,
      "ophilic": 8804,
      "Ġphe": 8805,
      "Ġkind": 8806,
      "Ġdra": 8807,
      "Ġbrachytherapy": 8808,
      "Ġpresentations": 8809,
      "Ġindirect": 8810,
      "smokers": 8811,
      "ationale": 8812,
      "Ġcalcific": 8813,
      "tin": 8814,
      "Ġlute": 8815,
      "Ġconsp": 8816,
      "Ġblunt": 8817,
      "sur": 8818,
      "Ġmeet": 8819,
      "angitis": 8820,
      "severe": 8821,
      "idin": 8822,
      "Ġintrinsic": 8823,
      "emt": 8824,
      "crc": 8825,
      "atonin": 8826,
      "Ġmemory": 8827,
      "Ġreadily": 8828,
      "maternal": 8829,
      "Ġinstead": 8830,
      "Ġ125": 8831,
      "Ġpathologies": 8832,
      "biopsy": 8833,
      "Ġsynthetic": 8834,
      "Ġsta": 8835,
      "ensin": 8836,
      "Ġyellow": 8837,
      "achment": 8838,
      "alcoh": 8839,
      "pdt": 8840,
      "Ġisoforms": 8841,
      "Ġwash": 8842,
      "Ġinjuries": 8843,
      "Ġcdna": 8844,
      "ka": 8845,
      "Ġgreatly": 8846,
      "diagnostic": 8847,
      "ano": 8848,
      "endothelial": 8849,
      "Ġdirected": 8850,
      "ora": 8851,
      "Ġsources": 8852,
      "Ġbioinformatic": 8853,
      "Ġdecline": 8854,
      "Ġperiost": 8855,
      "Ġdetails": 8856,
      "Ġnovo": 8857,
[...]
